{
  "version": "1.0",
  "truncation": null,
  "padding": null,
  "added_tokens": [
    {
      "id": 0,
      "content": "<|endoftext|>",
      "single_word": false,
      "lstrip": false,
      "rstrip": false,
      "normalized": false,
      "special": true
    },
    {
      "id": 1,
      "content": "<|pad|>",
      "single_word": false,
      "lstrip": false,
      "rstrip": false,
      "normalized": false,
      "special": true
    }
  ],
  "normalizer": null,
  "pre_tokenizer": {
    "type": "Sequence",
    "pretokenizers": [
      {
        "type": "Digits",
        "individual_digits": true
      },
      {
        "type": "ByteLevel",
        "add_prefix_space": false,
        "trim_offsets": true,
        "use_regex": true
      }
    ]
  },
  "post_processor": {
    "type": "TemplateProcessing",
    "single": [
      {
        "Sequence": {
          "id": "A",
          "type_id": 0
        }
      }
    ],
    "pair": [
      {
        "Sequence": {
          "id": "A",
          "type_id": 0
        }
      },
      {
        "Sequence": {
          "id": "B",
          "type_id": 1
        }
      }
    ],
    "special_tokens": {}
  },
  "decoder": {
    "type": "ByteLevel",
    "add_prefix_space": true,
    "trim_offsets": true,
    "use_regex": true
  },
  "model": {
    "type": "BPE",
    "dropout": null,
    "unk_token": null,
    "continuing_subword_prefix": null,
    "end_of_word_suffix": null,
    "fuse_unk": false,
    "byte_fallback": false,
    "ignore_merges": false,
    "vocab": {
      "<|endoftext|>": 0,
      "<|pad|>": 1,
      "!": 2,
      "\"": 3,
      "#": 4,
      "$": 5,
      "%": 6,
      "&": 7,
      "'": 8,
      "(": 9,
      ")": 10,
      "*": 11,
      "+": 12,
      ",": 13,
      "-": 14,
      ".": 15,
      "/": 16,
      "0": 17,
      "1": 18,
      "2": 19,
      "3": 20,
      "4": 21,
      "5": 22,
      "6": 23,
      "7": 24,
      "8": 25,
      "9": 26,
      ":": 27,
      ";": 28,
      "<": 29,
      "=": 30,
      ">": 31,
      "?": 32,
      "@": 33,
      "A": 34,
      "B": 35,
      "C": 36,
      "D": 37,
      "E": 38,
      "F": 39,
      "G": 40,
      "H": 41,
      "I": 42,
      "J": 43,
      "K": 44,
      "L": 45,
      "M": 46,
      "N": 47,
      "O": 48,
      "P": 49,
      "Q": 50,
      "R": 51,
      "S": 52,
      "T": 53,
      "U": 54,
      "V": 55,
      "W": 56,
      "X": 57,
      "Y": 58,
      "Z": 59,
      "[": 60,
      "\\": 61,
      "]": 62,
      "^": 63,
      "_": 64,
      "`": 65,
      "a": 66,
      "b": 67,
      "c": 68,
      "d": 69,
      "e": 70,
      "f": 71,
      "g": 72,
      "h": 73,
      "i": 74,
      "j": 75,
      "k": 76,
      "l": 77,
      "m": 78,
      "n": 79,
      "o": 80,
      "p": 81,
      "q": 82,
      "r": 83,
      "s": 84,
      "t": 85,
      "u": 86,
      "v": 87,
      "w": 88,
      "x": 89,
      "y": 90,
      "z": 91,
      "{": 92,
      "|": 93,
      "}": 94,
      "~": 95,
      "¡": 96,
      "¢": 97,
      "£": 98,
      "¤": 99,
      "¥": 100,
      "¦": 101,
      "§": 102,
      "¨": 103,
      "©": 104,
      "ª": 105,
      "«": 106,
      "¬": 107,
      "®": 108,
      "¯": 109,
      "°": 110,
      "±": 111,
      "²": 112,
      "³": 113,
      "´": 114,
      "µ": 115,
      "¶": 116,
      "·": 117,
      "¸": 118,
      "¹": 119,
      "º": 120,
      "»": 121,
      "¼": 122,
      "½": 123,
      "¾": 124,
      "¿": 125,
      "À": 126,
      "Á": 127,
      "Â": 128,
      "Ã": 129,
      "Ä": 130,
      "Å": 131,
      "Æ": 132,
      "Ç": 133,
      "È": 134,
      "É": 135,
      "Ê": 136,
      "Ë": 137,
      "Ì": 138,
      "Í": 139,
      "Î": 140,
      "Ï": 141,
      "Ð": 142,
      "Ñ": 143,
      "Ò": 144,
      "Ó": 145,
      "Ô": 146,
      "Õ": 147,
      "Ö": 148,
      "×": 149,
      "Ø": 150,
      "Ù": 151,
      "Ú": 152,
      "Û": 153,
      "Ü": 154,
      "Ý": 155,
      "Þ": 156,
      "ß": 157,
      "à": 158,
      "á": 159,
      "â": 160,
      "ã": 161,
      "ä": 162,
      "å": 163,
      "æ": 164,
      "ç": 165,
      "è": 166,
      "é": 167,
      "ê": 168,
      "ë": 169,
      "ì": 170,
      "í": 171,
      "î": 172,
      "ï": 173,
      "ð": 174,
      "ñ": 175,
      "ò": 176,
      "ó": 177,
      "ô": 178,
      "õ": 179,
      "ö": 180,
      "÷": 181,
      "ø": 182,
      "ù": 183,
      "ú": 184,
      "û": 185,
      "ü": 186,
      "ý": 187,
      "þ": 188,
      "ÿ": 189,
      "Ā": 190,
      "ā": 191,
      "Ă": 192,
      "ă": 193,
      "Ą": 194,
      "ą": 195,
      "Ć": 196,
      "ć": 197,
      "Ĉ": 198,
      "ĉ": 199,
      "Ċ": 200,
      "ċ": 201,
      "Č": 202,
      "č": 203,
      "Ď": 204,
      "ď": 205,
      "Đ": 206,
      "đ": 207,
      "Ē": 208,
      "ē": 209,
      "Ĕ": 210,
      "ĕ": 211,
      "Ė": 212,
      "ė": 213,
      "Ę": 214,
      "ę": 215,
      "Ě": 216,
      "ě": 217,
      "Ĝ": 218,
      "ĝ": 219,
      "Ğ": 220,
      "ğ": 221,
      "Ġ": 222,
      "ġ": 223,
      "Ģ": 224,
      "ģ": 225,
      "Ĥ": 226,
      "ĥ": 227,
      "Ħ": 228,
      "ħ": 229,
      "Ĩ": 230,
      "ĩ": 231,
      "Ī": 232,
      "ī": 233,
      "Ĭ": 234,
      "ĭ": 235,
      "Į": 236,
      "į": 237,
      "İ": 238,
      "ı": 239,
      "Ĳ": 240,
      "ĳ": 241,
      "Ĵ": 242,
      "ĵ": 243,
      "Ķ": 244,
      "ķ": 245,
      "ĸ": 246,
      "Ĺ": 247,
      "ĺ": 248,
      "Ļ": 249,
      "ļ": 250,
      "Ľ": 251,
      "ľ": 252,
      "Ŀ": 253,
      "ŀ": 254,
      "Ł": 255,
      "ł": 256,
      "Ń": 257,
      "Ġt": 258,
      "he": 259,
      "Ġa": 260,
      "Ġs": 261,
      "Ġw": 262,
      "nd": 263,
      "Ġthe": 264,
      "ed": 265,
      "Ġb": 266,
      "Ġto": 267,
      "Ġand": 268,
      "Ġh": 269,
      "Ġf": 270,
      "in": 271,
      "ĠT": 272,
      "Ġwa": 273,
      "re": 274,
      "it": 275,
      "ou": 276,
      "Ġl": 277,
      "Ġd": 278,
      "Ġc": 279,
      "Ġp": 280,
      "ay": 281,
      "Ġm": 282,
      "er": 283,
      "Ġwas": 284,
      "om": 285,
      "ĠThe": 286,
      "Ġhe": 287,
      "is": 288,
      "ar": 289,
      "Ġn": 290,
      "im": 291,
      "on": 292,
      "Ġsa": 293,
      "id": 294,
      "ll": 295,
      "Ġha": 296,
      "Ġg": 297,
      "at": 298,
      "ĠS": 299,
      "ing": 300,
      "ot": 301,
      "en": 302,
      "an": 303,
      "le": 304,
      "or": 305,
      "ir": 306,
      "am": 307,
      "et": 308,
      "ĠH": 309,
      "Ġit": 310,
      "Ġth": 311,
      "ig": 312,
      "ĠThey": 313,
      "Ġin": 314,
      "il": 315,
      "Ġpl": 316,
      "ĠHe": 317,
      "Ġ\"": 318,
      "ow": 319,
      "ver": 320,
      "ri": 321,
      "ut": 322,
      "Ġbe": 323,
      "Ġu": 324,
      "Ġsaid": 325,
      "Ġplay": 326,
      "ith": 327,
      "Ġday": 328,
      "Ġwith": 329,
      "pp": 330,
      "On": 331,
      "Ġo": 332,
      "Ġy": 333,
      "oo": 334,
      "ked": 335,
      "Ġr": 336,
      "Ġher": 337,
      "ce": 338,
      "ĠI": 339,
      "ĠShe": 340,
      "ld": 341,
      "ĠTim": 342,
      "Ġhis": 343,
      "Ġst": 344,
      "ke": 345,
      "Ġe": 346,
      "Ġbig": 347,
      "nt": 348,
      "ck": 349,
      "Ġyou": 350,
      "very": 351,
      "st": 352,
      "ve": 353,
      "end": 354,
      "Ġon": 355,
      "un": 356,
      "Ġhapp": 357,
      "riend": 358,
      "Ġfriend": 359,
      "all": 360,
      "ily": 361,
      "ĠL": 362,
      "Ġthey": 363,
      "Ġwe": 364,
      "Ġhad": 365,
      "Ġnot": 366,
      "Ġli": 367,
      "Ġup": 368,
      "her": 369,
      "Ġwant": 370,
      "Ġof": 371,
      "ad": 372,
      "itt": 373,
      "se": 374,
      "ĠB": 375,
      "Ġdo": 376,
      "Ġhappy": 377,
      "ent": 378,
      "Ġvery": 379,
      "ĠM": 380,
      "es": 381,
      "Ġthat": 382,
      "Ġsaw": 383,
      "One": 384,
      "'s": 385,
      "ould": 386,
      "Ġmom": 387,
      "Ġfor": 388,
      "Ġsh": 389,
      "ittle": 390,
      "Ġlittle": 391,
      "Ġso": 392,
      "Ġshe": 393,
      "ch": 394,
      "ime": 395,
      "Ġne": 396,
      "Ġnam": 397,
      ".\"": 398,
      "Ġtime": 399,
      "Ġk": 400,
      "ound": 401,
      "Ġthere": 402,
      "Ġnamed": 403,
      "Ġsm": 404,
      "Ġbo": 405,
      "Ġwere": 406,
      "ĠLily": 407,
      "Ġwanted": 408,
      "Ġbut": 409,
      "out": 410,
      "The": 411,
      "Ġfriends": 412,
      "ved": 413,
      "!\"": 414,
      "ht": 415,
      "ĠTom": 416,
      "ird": 417,
      "el": 418,
      "Ġbird": 419,
      "al": 420,
      "Ġan": 421,
      "ake": 422,
      "Ġtoo": 423,
      "ome": 424,
      "ĠIt": 425,
      "ug": 426,
      "ide": 427,
      "Ġwent": 428,
      "Ġwh": 429,
      "Ġhel": 430,
      "Once": 431,
      "Ġis": 432,
      "Ġall": 433,
      "Ġhelp": 434,
      "ue": 435,
      "Ġloo": 436,
      "Ġlo": 437,
      "ter": 438,
      "ĠA": 439,
      "Ġupon": 440,
      "ry": 441,
      "ore": 442,
      "ind": 443,
      "Ġfun": 444,
      "get": 445,
      "Ġtoy": 446,
      "ill": 447,
      "ame": 448,
      "Ġas": 449,
      "Ġat": 450,
      "ra": 451,
      "Ġj": 452,
      "Ġdid": 453,
      "gether": 454,
      "Ġre": 455,
      "ur": 456,
      "Ġse": 457,
      "Ġtogether": 458,
      "ack": 459,
      "Ġcat": 460,
      "ly": 461,
      "Ġtre": 462,
      "ood": 463,
      "ic": 464,
      "ted": 465,
      "Ġdog": 466,
      "Ġcould": 467,
      "Ġcan": 468,
      "Ġtheir": 469,
      "ard": 470,
      "ec": 471,
      "ark": 472,
      "Ġgir": 473,
      "Ġplayed": 474,
      "Ġhim": 475,
      "Ġball": 476,
      "?\"": 477,
      "Ġgirl": 478,
      "way": 479,
      "Ġro": 480,
      "Ġgo": 481,
      "hed": 482,
      "my": 483,
      "Ġare": 484,
      "Ġout": 485,
      "Ġle": 486,
      "Ġfr": 487,
      "ain": 488,
      "Ġkn": 489,
      "hen": 490,
      "Ġthem": 491,
      "um": 492,
      "'t": 493,
      "ax": 494,
      "Ġsad": 495,
      "ul": 496,
      "Ġboy": 497,
      "Ġtree": 498,
      "other": 499,
      "Ġhave": 500,
      "Ġman": 501,
      "Ġcl": 502,
      "Ġloved": 503,
      "Ġlooked": 504,
      "oug": 505,
      "Ġfound": 506,
      "Ġsp": 507,
      "Ġstar": 508,
      "ĠSue": 509,
      "one": 510,
      "hing": 511,
      "Ġsc": 512,
      "Ġback": 513,
      "own": 514,
      "ĠMax": 515,
      "are": 516,
      "Ġlike": 517,
      "ful": 518,
      "side": 519,
      "Ġme": 520,
      "Ġbec": 521,
      "Ġpark": 522,
      "ight": 523,
      "ong": 524,
      "Ġcar": 525,
      "op": 526,
      "elt": 527,
      "ĠOne": 528,
      "Ġliked": 529,
      "Ġwould": 530,
      "Ġmake": 531,
      "round": 532,
      "Ġla": 533,
      "Ġfa": 534,
      "Ġfelt": 535,
      "You": 536,
      "ĠW": 537,
      "ell": 538,
      "Ġsee": 539,
      "ĠBut": 540,
      "omet": 541,
      "Ġasked": 542,
      "ag": 543,
      "Ġnew": 544,
      "Ġno": 545,
      "ice": 546,
      "ĠSam": 547,
      "ouse": 548,
      "Ġstarted": 549,
      "ared": 550,
      "Ġcame": 551,
      "ĠBen": 552,
      "Ġal": 553,
      "Ġother": 554,
      "ought": 555,
      "iled": 556,
      "Ġsomet": 557,
      "Ġag": 558,
      "Ġgood": 559,
      "Ġsmall": 560,
      "ss": 561,
      "Ġbr": 562,
      "Ġsmiled": 563,
      "Ġsay": 564,
      "ried": 565,
      "ade": 566,
      "ings": 567,
      "ob": 568,
      "pot": 569,
      "Ġwor": 570,
      "Ġfind": 571,
      "Ġex": 572,
      "ia": 573,
      "Ġaway": 574,
      "ty": 575,
      "Ġput": 576,
      "Ġwhat": 577,
      "Ġsomething": 578,
      "Ġco": 579,
      "Ġfrom": 580,
      "Ġmade": 581,
      "Ġthought": 582,
      "ened": 583,
      "Ġhome": 584,
      "Ġplaying": 585,
      "ook": 586,
      "Ġevery": 587,
      "Ġwal": 588,
      "Ġmu": 589,
      "uc": 590,
      "ach": 591,
      "arn": 592,
      "ĠSpot": 593,
      "Ġran": 594,
      "ile": 595,
      "ĠF": 596,
      "ie": 597,
      "ĠJ": 598,
      "ave": 599,
      "Ġagain": 600,
      "Ġsome": 601,
      "Ġlaug": 602,
      "dd": 603,
      "Ġhouse": 604,
      "Ġdown": 605,
      "Ġfl": 606,
      "king": 607,
      "Ġtook": 608,
      "Ġscared": 609,
      "Ġpr": 610,
      "ny": 611,
      "ure": 612,
      "Ġtoys": 613,
      "Ġlearn": 614,
      "ĠYou": 615,
      "if": 616,
      "Ġwill": 617,
      "Ġbox": 618,
      "ick": 619,
      "ret": 620,
      "ab": 621,
      "ep": 622,
      "Ġmy": 623,
      "Ġaround": 624,
      "Ġthings": 625,
      "Ġyour": 626,
      "oud": 627,
      "Ġbl": 628,
      "uck": 629,
      "Ġwhen": 630,
      "ish": 631,
      "Ġlived": 632,
      "Ġfe": 633,
      "Ġthen": 634,
      "Ġsun": 635,
      "as": 636,
      "Ġsw": 637,
      ",\"": 638,
      "Ġch": 639,
      "us": 640,
      "pped": 641,
      "Ġab": 642,
      "ĠMia": 643,
      "ank": 644,
      "Ġget": 645,
      "ucy": 646,
      "Tim": 647,
      "ump": 648,
      "Th": 649,
      "Ġlot": 650,
      "ist": 651,
      "oth": 652,
      "Ġtried": 653,
      "ap": 654,
      "Ġknow": 655,
      "Ġsays": 656,
      "Ġgot": 657,
      "ited": 658,
      "Ġwho": 659,
      "Ġkne": 660,
      "ust": 661,
      "Ġmany": 662,
      "nder": 663,
      "Ġint": 664,
      "Ġabout": 665,
      "Lily": 666,
      "Ġpret": 667,
      "Ġdec": 668,
      "Ġany": 669,
      "Ġred": 670,
      "ĠD": 671,
      "ive": 672,
      "Ġknew": 673,
      "ace": 674,
      "ous": 675,
      "Ġmore": 676,
      "ise": 677,
      "Ġcare": 678,
      "ally": 679,
      "Ġpic": 680,
      "au": 681,
      "qu": 682,
      "Ġhug": 683,
      "ĠLucy": 684,
      "Ġlearned": 685,
      "Ġpo": 686,
      "Ġwater": 687,
      "fter": 688,
      "Ġv": 689,
      "Ġbecame": 690,
      "Ġbest": 691,
      "ause": 692,
      "Ġop": 693,
      "Ġgre": 694,
      "Ġexc": 695,
      "urp": 696,
      "ways": 697,
      "âĢ": 698,
      "Ġoutside": 699,
      "Ġlaughed": 700,
      "Ġlook": 701,
      "Ġalways": 702,
      "Ġdecid": 703,
      "Ġshow": 704,
      "Ġun": 705,
      "ant": 706,
      "ĠBob": 707,
      "Ġroom": 708,
      "fe": 709,
      "Ġdecided": 710,
      "Ġho": 711,
      "Ġbecause": 712,
      "ĠSo": 713,
      "Ġinto": 714,
      "Ġeat": 715,
      "ite": 716,
      "Ġjump": 717,
      "ĠAnd": 718,
      "Ġpe": 719,
      "Ġboth": 720,
      "ers": 721,
      "ĠMom": 722,
      "Ġdad": 723,
      "They": 724,
      "udd": 725,
      "Ġke": 726,
      "Ġone": 727,
      "nn": 728,
      "Ġthis": 729,
      "Ġexcited": 730,
      "Ġfast": 731,
      "Ġnice": 732,
      "ĠE": 733,
      "Ġfeel": 734,
      "Tom": 735,
      "Yes": 736,
      "Ġrun": 737,
      "Ġlong": 738,
      "Ġtold": 739,
      "Ġsk": 740,
      "Ġam": 741,
      "urpr": 742,
      "our": 743,
      "Ġinside": 744,
      "ull": 745,
      "Ġtr": 746,
      "Ġsurpr": 747,
      "Ġmo": 748,
      "ink": 749,
      "Ġpretty": 750,
      "iny": 751,
      "Ġsor": 752,
      "Wh": 753,
      "Ġtake": 754,
      "og": 755,
      "Ġsl": 756,
      "Ġeach": 757,
      "Ġgave": 758,
      "Ġmuch": 759,
      "Ġgra": 760,
      "lew": 761,
      "nna": 762,
      "Ġrock": 763,
      "Ġhow": 764,
      "Ġstr": 765,
      "ara": 766,
      "imal": 767,
      "Ġanimal": 768,
      "ged": 769,
      "Ġneed": 770,
      "Ġthan": 771,
      "But": 772,
      "ven": 773,
      "etter": 774,
      "Ġtow": 775,
      "Ġor": 776,
      "ĠC": 777,
      "Ġunder": 778,
      "ess": 779,
      "Ġold": 780,
      "Ġsorry": 781,
      "ge": 782,
      "ised": 783,
      "ro": 784,
      "urt": 785,
      "Ġcle": 786,
      "Ġfish": 787,
      "Ġwalked": 788,
      "Ġclo": 789,
      "and": 790,
      "Ġbear": 791,
      "ft": 792,
      "ase": 793,
      "ast": 794,
      "Ġhand": 795,
      "urn": 796,
      "ĠWe": 797,
      "Ġkind": 798,
      "ĠHis": 799,
      "Ġte": 800,
      "here": 801,
      "Ġhappened": 802,
      "Ġjust": 803,
      "Ġflow": 804,
      "Ġfood": 805,
      "Ġlist": 806,
      "Ġdidn": 807,
      "Ġanimals": 808,
      "Ġhig": 809,
      "pl": 810,
      "Ġnear": 811,
      "Ġwat": 812,
      "Ġide": 813,
      "Ġtry": 814,
      "ched": 815,
      "Ġsky": 816,
      "ine": 817,
      "Ġsn": 818,
      "ving": 819,
      "Ġfi": 820,
      "rom": 821,
      "Ġus": 822,
      "Ġidea": 823,
      "Ġbetter": 824,
      "ĠAmy": 825,
      "Ġbug": 826,
      "Ġheard": 827,
      "gry": 828,
      "Ġits": 829,
      "Ġtw": 830,
      "Ġlet": 831,
      "pec": 832,
      "ate": 833,
      "able": 834,
      "ff": 835,
      "Ġen": 836,
      "Ġcareful": 837,
      "Ġshare": 838,
      "ex": 839,
      "Ġif": 840,
      "Thank": 841,
      "Mom": 842,
      "Ġfly": 843,
      "Ġstor": 844,
      "ial": 845,
      "Ġflew": 846,
      "more": 847,
      "Ġanymore": 848,
      "ĠTh": 849,
      "Ġspec": 850,
      "Ġspecial": 851,
      "ion": 852,
      "Ġcom": 853,
      "Ġlots": 854,
      "Ġnever": 855,
      "Ġby": 856,
      "lf": 857,
      "ream": 858,
      "Ġdan": 859,
      "Ġbu": 860,
      "Ġfo": 861,
      "Ġwind": 862,
      "Ġdon": 863,
      "Ġtal": 864,
      "Ġclean": 865,
      "ort": 866,
      "Ġgr": 867,
      "Ġlove": 868,
      "rm": 869,
      "ber": 870,
      "Ġend": 871,
      "ĠThen": 872,
      "ople": 873,
      "Ġeven": 874,
      "Ġmag": 875,
      "Ġhard": 876,
      "Ġshiny": 877,
      "udden": 878,
      "Ġfore": 879,
      "Ġover": 880,
      "Ġcake": 881,
      "ak": 882,
      "Ġbook": 883,
      "Ġcol": 884,
      "Ġturn": 885,
      "Ġfam": 886,
      "Ġbad": 887,
      "Ġsafe": 888,
      "Ġafter": 889,
      "ady": 890,
      "ĠAnna": 891,
      "uddenly": 892,
      "Ġpeople": 893,
      "Ġproud": 894,
      "ĠEvery": 895,
      "Ġsurprised": 896,
      "pected": 897,
      "Let": 898,
      "Ġhigh": 899,
      "Ġcu": 900,
      "Ġhurt": 901,
      "Ġcome": 902,
      "imb": 903,
      "arden": 904,
      "Ġdoor": 905,
      "Ġgarden": 906,
      "bb": 907,
      "Ġground": 908,
      "Ġopened": 909,
      "Ġpicked": 910,
      "Ġloud": 911,
      "Ġclimb": 912,
      "expected": 913,
      "Ġunexpected": 914,
      "Ġgl": 915,
      "Ġche": 916,
      "ild": 917,
      "Ġim": 918,
      "As": 919,
      "Ġgive": 920,
      "Ġway": 921,
      "ail": 922,
      "'m": 923,
      "Ġthanked": 924,
      "Ġcolor": 925,
      "Ġblue": 926,
      "Ġstill": 927,
      "Ġever": 928,
      "Ġhugged": 929,
      "ĠFrom": 930,
      "Ġcall": 931,
      "Ġfar": 932,
      "ip": 933,
      "ĠHer": 934,
      "ĠSara": 935,
      "ĠWhen": 936,
      "No": 937,
      "Ġoff": 938,
      "Ġmagic": 939,
      "iz": 940,
      "ough": 941,
      "age": 942,
      "ummy": 943,
      "ĠK": 944,
      "Ġjumped": 945,
      "Ġshould": 946,
      "Ġfamily": 947,
      "Ġpar": 948,
      "ool": 949,
      "Ġkid": 950,
      "Ġsmile": 951,
      "hes": 952,
      "uff": 953,
      "Ġplace": 954,
      "kay": 955,
      "Ġwalk": 956,
      "Ġnow": 957,
      "ct": 958,
      "ĠIn": 959,
      "Ġgreat": 960,
      "em": 961,
      "ture": 962,
      "Ġqu": 963,
      "les": 964,
      "Ġstrong": 965,
      "Ġstay": 966,
      "Ġunt": 967,
      "Ġsto": 968,
      "aut": 969,
      "Ġforest": 970,
      "ane": 971,
      "Ġbra": 972,
      "itty": 973,
      "ĠP": 974,
      "Ġfrog": 975,
      "Ġbro": 976,
      "Ġuntil": 977,
      "oon": 978,
      "Ġbeaut": 979,
      "dy": 980,
      "Ġsqu": 981,
      "Ġstick": 982,
      "xt": 983,
      "Ġnext": 984,
      "Ġboat": 985,
      "lease": 986,
      "ning": 987,
      "Ġhappily": 988,
      "Ġlisten": 989,
      "aking": 990,
      "Ġkids": 991,
      "Ġtra": 992,
      "ies": 993,
      "iful": 994,
      "Ġbeautiful": 995,
      "Ġapp": 996,
      "th": 997,
      "Ġhelped": 998,
      "Ġdra": 999,
      "Ġshowed": 1000,
      "Ġclos": 1001,
      "be": 1002,
      "Ġimp": 1003,
      "Ġstory": 1004,
      "unny": 1005,
      "oy": 1006,
      "Ġwhile": 1007,
      "Ġtown": 1008,
      "rel": 1009,
      "pt": 1010,
      "Ġrain": 1011,
      "ress": 1012,
      "Ġpicture": 1013,
      "Ġbeing": 1014,
      "Ġrem": 1015,
      "It": 1016,
      "Ġeveryone": 1017,
      "ary": 1018,
      "ree": 1019,
      "Ġmor": 1020,
      "Ġhat": 1021,
      "Ġcalled": 1022,
      "Ġmet": 1023,
      "Ġstopped": 1024,
      "Ġad": 1025,
      "Ġgame": 1026,
      "Now": 1027,
      "He": 1028,
      "Can": 1029,
      "Ġangry": 1030,
      "ger": 1031,
      "uffy": 1032,
      "Ġopen": 1033,
      "Ġwo": 1034,
      "Ġtruck": 1035,
      "Ġkeep": 1036,
      "Ġsoft": 1037,
      "When": 1038,
      "Ġcry": 1039,
      "Ġyummy": 1040,
      "Ġlost": 1041,
      "Ġbed": 1042,
      "ĠLet": 1043,
      "ĠSally": 1044,
      "Ġwarm": 1045,
      "by": 1046,
      "vent": 1047,
      "Ġbrave": 1048,
      "Ġmouse": 1049,
      "ĠWh": 1050,
      "Ġate": 1051,
      "ĠKitty": 1052,
      "ished": 1053,
      "Ġde": 1054,
      "fore": 1055,
      "Ġdoll": 1056,
      "so": 1057,
      "Ġcouldn": 1058,
      "Ġwatch": 1059,
      "Ġleave": 1060,
      "Ġalso": 1061,
      "dded": 1062,
      "Ġfell": 1063,
      "Ġgreen": 1064,
      "Ġface": 1065,
      "Ġtwo": 1066,
      "gan": 1067,
      "iss": 1068,
      "Ġflowers": 1069,
      "bit": 1070,
      "What": 1071,
      "ĠR": 1072,
      "ble": 1073,
      "Ġnoise": 1074,
      "abbit": 1075,
      "irst": 1076,
      "owl": 1077,
      "Ġwhere": 1078,
      "az": 1079,
      "ock": 1080,
      "Ġsoon": 1081,
      "self": 1082,
      "Ġslide": 1083,
      "Ġrabbit": 1084,
      "Ġhole": 1085,
      "luffy": 1086,
      "Ġbefore": 1087,
      "irrel": 1088,
      "Ġpus": 1089,
      "ired": 1090,
      "Ġsat": 1091,
      "illy": 1092,
      "Ġhear": 1093,
      "Ġuse": 1094,
      "âĢĿ": 1095,
      "Hi": 1096,
      "Ġpa": 1097,
      "Ġkept": 1098,
      "âĢľ": 1099,
      "That": 1100,
      "Ġsquirrel": 1101,
      "ear": 1102,
      "Then": 1103,
      "ma": 1104,
      "Ġnodded": 1105,
      "Ġexpl": 1106,
      "Ġstore": 1107,
      "Ġcook": 1108,
      "Ġhands": 1109,
      "Look": 1110,
      "Ġbirds": 1111,
      "Ġpain": 1112,
      "Ġgoing": 1113,
      "Ġfunny": 1114,
      "Ġhaving": 1115,
      "day": 1116,
      "Ġsing": 1117,
      "aybe": 1118,
      "uch": 1119,
      "Ġey": 1120,
      "aug": 1121,
      "Ġcatch": 1122,
      "aught": 1123,
      "ĠCan": 1124,
      "ĠFluffy": 1125,
      "uit": 1126,
      "Ġyell": 1127,
      "Ġthink": 1128,
      "leep": 1129,
      "Ġcra": 1130,
      "Ġfin": 1131,
      "Ben": 1132,
      "Ġbre": 1133,
      "Ġfix": 1134,
      "Ġtired": 1135,
      "Ġbunny": 1136,
      "Ġused": 1137,
      "Ġlooking": 1138,
      "Ġbus": 1139,
      "ange": 1140,
      "air": 1141,
      "Ġwork": 1142,
      "Ġwr": 1143,
      "Ġour": 1144,
      "Ġpull": 1145,
      "We": 1146,
      "Ġthr": 1147,
      "thing": 1148,
      "ĠNow": 1149,
      "Ġwait": 1150,
      "Ġkit": 1151,
      "Ġsound": 1152,
      "ting": 1153,
      "Ġjo": 1154,
      "Ġhas": 1155,
      "ĠG": 1156,
      "Ġmean": 1157,
      "Ġpond": 1158,
      "ember": 1159,
      "Ġbeh": 1160,
      "Ġdr": 1161,
      "Ġsunny": 1162,
      "led": 1163,
      "Ġothers": 1164,
      "Ġask": 1165,
      "ng": 1166,
      "chen": 1167,
      "Ġkitchen": 1168,
      "Ġtalk": 1169,
      "Ġflo": 1170,
      "Ġdif": 1171,
      "rew": 1172,
      "Ġpie": 1173,
      "ĠJo": 1174,
      "Ġhead": 1175,
      "Ġreal": 1176,
      "Ġfirst": 1177,
      "Ġtri": 1178,
      "Ġmommy": 1179,
      "Ġeyes": 1180,
      "ello": 1181,
      "Ġimport": 1182,
      "Hello": 1183,
      "Ġfav": 1184,
      "ath": 1185,
      "joy": 1186,
      "Ġz": 1187,
      "Ġremember": 1188,
      "Ġright": 1189,
      "Ġflower": 1190,
      "Ġcon": 1191,
      "Ġmess": 1192,
      "Ġparty": 1193,
      "Ġcold": 1194,
      "ĠDo": 1195,
      "Ġvo": 1196,
      "Ġswe": 1197,
      "ious": 1198,
      "Ġsand": 1199,
      "ĠâĢľ": 1200,
      "ac": 1201,
      "orn": 1202,
      "Ġrace": 1203,
      "Ġcuri": 1204,
      "imes": 1205,
      "Ġimportant": 1206,
      "Ġduck": 1207,
      "Ġmoral": 1208,
      "Ġshared": 1209,
      "zy": 1210,
      "ount": 1211,
      "ĠJack": 1212,
      "Ġice": 1213,
      "Ġokay": 1214,
      "Ġadvent": 1215,
      "Ġworked": 1216,
      "llow": 1217,
      "At": 1218,
      "Ġenjoy": 1219,
      "Ġdress": 1220,
      "Ġbright": 1221,
      "Ġmaking": 1222,
      "Ġcurious": 1223,
      "Ġown": 1224,
      "Ġtall": 1225,
      "Ġdir": 1226,
      "Ġhop": 1227,
      "reed": 1228,
      "Ġhid": 1229,
      "Ġfavor": 1230,
      "Ġri": 1231,
      "hn": 1232,
      "Ġsleep": 1233,
      "Ġdis": 1234,
      "Wow": 1235,
      "Ġfavorite": 1236,
      "Ġthing": 1237,
      "Ġbegan": 1238,
      "Ġmon": 1239,
      "Ġbag": 1240,
      "Ġhill": 1241,
      "Don": 1242,
      "Ġcla": 1243,
      "Ġdraw": 1244,
      "Ġrest": 1245,
      "Ġhere": 1246,
      "Ġyard": 1247,
      "Ġtell": 1248,
      "ĠFin": 1249,
      "ster": 1250,
      "Ġwatched": 1251,
      "que": 1252,
      "Ġfollow": 1253,
      "Ġmove": 1254,
      "Ġbel": 1255,
      "ect": 1256,
      "Ġcut": 1257,
      "Ġnight": 1258,
      "Ġagreed": 1259,
      "Ġpick": 1260,
      "co": 1261,
      "Ġblock": 1262,
      "Ġhun": 1263,
      "aper": 1264,
      "lly": 1265,
      "Ġstop": 1266,
      "Ġbehind": 1267,
      "ĠThis": 1268,
      "Ġsurprise": 1269,
      "ied": 1270,
      "Ġsho": 1271,
      "Ġhot": 1272,
      "After": 1273,
      "Ġtable": 1274,
      "Ġgrass": 1275,
      "Ġworry": 1276,
      "Ġdark": 1277,
      "Ġtrees": 1278,
      "Ġvoice": 1279,
      "Ġwalking": 1280,
      "fere": 1281,
      "Ġfloor": 1282,
      "Ġfarm": 1283,
      "Ġlion": 1284,
      "Ġtop": 1285,
      "Ġdiffere": 1286,
      "Ġplease": 1287,
      "Ġru": 1288,
      "Ġsong": 1289,
      "Ġbutter": 1290,
      "Ġtail": 1291,
      "Ġsweet": 1292,
      "Max": 1293,
      "Ġshout": 1294,
      "Ġcolors": 1295,
      "Ġread": 1296,
      "ĠDad": 1297,
      "Ġlady": 1298,
      "Ġforg": 1299,
      "isy": 1300,
      "Ġleaves": 1301,
      "Ġcloser": 1302,
      "ign": 1303,
      "Ġcars": 1304,
      "Ġturned": 1305,
      "Ġneeded": 1306,
      "Ġtast": 1307,
      "Why": 1308,
      "aring": 1309,
      "Ġwood": 1310,
      "Ġcried": 1311,
      "Ġdifferent": 1312,
      "Ġlaugh": 1313,
      "Ġdel": 1314,
      "Ġpiece": 1315,
      "âĢĻ": 1316,
      "ered": 1317,
      "ĠMr": 1318,
      "Ġroll": 1319,
      "Ġadventure": 1320,
      "Ġfire": 1321,
      "Ġdoes": 1322,
      "ike": 1323,
      "Ġcr": 1324,
      "Ġhungry": 1325,
      "Ġhair": 1326,
      "ĠSuddenly": 1327,
      "Ġpaper": 1328,
      "Ġfeeling": 1329,
      "Ġyellow": 1330,
      "Ġfull": 1331,
      "bo": 1332,
      "Ġprin": 1333,
      "Sue": 1334,
      "Ġtouch": 1335,
      "ĠAs": 1336,
      "Anna": 1337,
      "Sam": 1338,
      "Ġwet": 1339,
      "Ġfriendly": 1340,
      "Ġper": 1341,
      "oom": 1342,
      "ken": 1343,
      "cked": 1344,
      "ached": 1345,
      "Ġswing": 1346,
      "Ġfruit": 1347,
      "ient": 1348,
      "Ġbroken": 1349,
      "Ġready": 1350,
      "bye": 1351,
      "ppy": 1352,
      "Ġprom": 1353,
      "ĠThat": 1354,
      "Ġanother": 1355,
      "Ġlight": 1356,
      "Ġpretend": 1357,
      "Ġdance": 1358,
      "ater": 1359,
      "Ġclimbed": 1360,
      "where": 1361,
      "Ġlistened": 1362,
      "ĠBobo": 1363,
      "Ġdanc": 1364,
      "Ġrunning": 1365,
      "Ġonly": 1366,
      "Ġplan": 1367,
      "Ġgone": 1368,
      "Ġswim": 1369,
      "bbed": 1370,
      "Suddenly": 1371,
      "sh": 1372,
      "Ġtrain": 1373,
      "ila": 1374,
      "ndma": 1375,
      "Sara": 1376,
      "ĠJane": 1377,
      "Ġclose": 1378,
      "av": 1379,
      "She": 1380,
      "Ġsmell": 1381,
      "So": 1382,
      "aby": 1383,
      "Ġamaz": 1384,
      "Ġhold": 1385,
      "Ġblocks": 1386,
      "Ġwonder": 1387,
      "ĠTimmy": 1388,
      "Ġrepl": 1389,
      "ĠAll": 1390,
      "Ġbutterf": 1391,
      "Ġsees": 1392,
      "Ġreached": 1393,
      "Ġwall": 1394,
      "Ġpu": 1395,
      "oney": 1396,
      "red": 1397,
      "Ġslow": 1398,
      "Ġhelping": 1399,
      "Ġdri": 1400,
      "Ġcream": 1401,
      "Ġcool": 1402,
      "Ġglad": 1403,
      "af": 1404,
      "Ġant": 1405,
      "Ġless": 1406,
      "Ġbeen": 1407,
      "Ġgoodbye": 1408,
      "Ġac": 1409,
      "Ġfight": 1410,
      "ather": 1411,
      "Mia": 1412,
      "Ġpushed": 1413,
      "iced": 1414,
      "Ġfair": 1415,
      "Ġmust": 1416,
      "Ġhide": 1417,
      "Ġmoment": 1418,
      "Ġwindow": 1419,
      "ĠO": 1420,
      "Ġsit": 1421,
      "Ġballoon": 1422,
      "Ġsnow": 1423,
      "Ġchild": 1424,
      "Ġexplore": 1425,
      "ĠEveryone": 1426,
      "Ġar": 1427,
      "Ġwished": 1428,
      "Ġbaby": 1429,
      "Ġdone": 1430,
      "Ġwag": 1431,
      "Ġste": 1432,
      "Ġbuy": 1433,
      "Ġstuck": 1434,
      "Ġperf": 1435,
      "Ġthank": 1436,
      "Ġmight": 1437,
      "icy": 1438,
      "Ġname": 1439,
      "ized": 1440,
      "Ġtrying": 1441,
      "Ġbit": 1442,
      "Ġcoming": 1443,
      "Ġbar": 1444,
      "Ġquick": 1445,
      "Ġfall": 1446,
      "Ġapple": 1447,
      "ash": 1448,
      "Ġscary": 1449,
      "Ġlooks": 1450,
      "Ġbuild": 1451,
      "Ġdoing": 1452,
      "Ġwin": 1453,
      "Ġunderst": 1454,
      "aisy": 1455,
      "Ġdin": 1456,
      "Ġdream": 1457,
      "Ġdirty": 1458,
      "Ġheld": 1459,
      "ames": 1460,
      "Ġbooks": 1461,
      "Ġmar": 1462,
      "In": 1463,
      "Ġbutterfly": 1464,
      "Ġleft": 1465,
      "Ġshouted": 1466,
      "Ġcount": 1467,
      "Ġreplied": 1468,
      "avy": 1469,
      "Ġreach": 1470,
      "Ġtiny": 1471,
      "Ġthrough": 1472,
      "ott": 1473,
      "Ġdro": 1474,
      "Ġwhy": 1475,
      "Ġair": 1476,
      "Ġbran": 1477,
      "Ġland": 1478,
      "key": 1479,
      "Ġthree": 1480,
      "Ġpulled": 1481,
      "Ġspl": 1482,
      "Ġgrow": 1483,
      "Ġtreat": 1484,
      "Ġbrother": 1485,
      "Ġwise": 1486,
      "Ġwoods": 1487,
      "Ġsure": 1488,
      "'re": 1489,
      "Ġchair": 1490,
      "ix": 1491,
      "Ġmat": 1492,
      "ins": 1493,
      "Ġseen": 1494,
      "Ġpink": 1495,
      "Ġclapped": 1496,
      "Ġplant": 1497,
      "ely": 1498,
      "Ġowl": 1499,
      "Ġcup": 1500,
      "ield": 1501,
      "Ġsometimes": 1502,
      "andy": 1503,
      "Ġfill": 1504,
      "Ġcloud": 1505,
      "ask": 1506,
      "Ġswam": 1507,
      "outh": 1508,
      "Ġjob": 1509,
      "Ġcolorful": 1510,
      "Ġremembered": 1511,
      "Ġbigger": 1512,
      "Ġnest": 1513,
      "Ġmouth": 1514,
      "pe": 1515,
      "Okay": 1516,
      "Ġlesson": 1517,
      "Ġjoin": 1518,
      "Ġcre": 1519,
      "ph": 1520,
      "oup": 1521,
      "room": 1522,
      "ĠThere": 1523,
      "art": 1524,
      "Ġwaved": 1525,
      "uddy": 1526,
      "Ġgrabbed": 1527,
      "Ġstayed": 1528,
      "Oh": 1529,
      "Ġpaint": 1530,
      "This": 1531,
      "Ġclot": 1532,
      "Ġcont": 1533,
      "Ġclothes": 1534,
      "Ġve": 1535,
      "ower": 1536,
      "ĠAfter": 1537,
      "Ġwaited": 1538,
      "Ġquickly": 1539,
      "cle": 1540,
      "Ġword": 1541,
      "Ġbroke": 1542,
      "ucky": 1543,
      "Ġgames": 1544,
      "Ġcast": 1545,
      "Ġblew": 1546,
      "Ġgent": 1547,
      "ĠMommy": 1548,
      "Jo": 1549,
      "Ġenjoyed": 1550,
      "Ġnoticed": 1551,
      "ries": 1552,
      "ation": 1553,
      "Ġset": 1554,
      "Ġlikes": 1555,
      "Ġpictures": 1556,
      "ton": 1557,
      "de": 1558,
      "Ġsea": 1559,
      "Ġheavy": 1560,
      "Ġmus": 1561,
      "Ġalone": 1562,
      "Ġgif": 1563,
      "asure": 1564,
      "Ġanything": 1565,
      "Ġspot": 1566,
      "Ġmiss": 1567,
      "Ġhopped": 1568,
      "Ġworld": 1569,
      "Ġturns": 1570,
      "orm": 1571,
      "Ġyear": 1572,
      "der": 1573,
      "Ġbott": 1574,
      "Ġpat": 1575,
      "Ġpot": 1576,
      "Ġpen": 1577,
      "lc": 1578,
      "Her": 1579,
      "Ġmix": 1580,
      "Ġarm": 1581,
      "Ġbike": 1582,
      "Ġtight": 1583,
      "Ġeverywhere": 1584,
      "Lucy": 1585,
      "Ġwon": 1586,
      "Ġtower": 1587,
      "Ġthrew": 1588,
      "Ġhimself": 1589,
      "Ġfollowed": 1590,
      "ĠBuddy": 1591,
      "Ġride": 1592,
      "man": 1593,
      "less": 1594,
      "Ġju": 1595,
      "Ġje": 1596,
      "Bob": 1597,
      "amp": 1598,
      "ape": 1599,
      "Ġcomp": 1600,
      "Ġkey": 1601,
      "row": 1602,
      "\".": 1603,
      "Ġwhite": 1604,
      "ctor": 1605,
      "Ġwrong": 1606,
      "ĠDaisy": 1607,
      "Ġmakes": 1608,
      "ĠWhat": 1609,
      "Ġbreak": 1610,
      "Ġblack": 1611,
      "arent": 1612,
      "ee": 1613,
      "ner": 1614,
      "Spot": 1615,
      "Do": 1616,
      "Ġdeep": 1617,
      "thy": 1618,
      "Ġmusic": 1619,
      "Ġpol": 1620,
      "Ġdelic": 1621,
      "cess": 1622,
      "ued": 1623,
      "Ġforgot": 1624,
      "Ġbee": 1625,
      "Ġparent": 1626,
      "Ġcastle": 1627,
      "ves": 1628,
      "olly": 1629,
      "Ġem": 1630,
      "iet": 1631,
      "Ġwear": 1632,
      "Ġhit": 1633,
      "ister": 1634,
      "oun": 1635,
      "Ġquiet": 1636,
      "Ġround": 1637,
      "ance": 1638,
      "Ġstu": 1639,
      "Ġdanced": 1640,
      "Ġvis": 1641,
      "ully": 1642,
      "Ġwants": 1643,
      "Ġleaf": 1644,
      "Ġmonster": 1645,
      "Ġnap": 1646,
      "ĠJohn": 1647,
      "Ġunderstand": 1648,
      "ang": 1649,
      "Ġbowl": 1650,
      "os": 1651,
      "rot": 1652,
      "ren": 1653,
      "Ġbor": 1654,
      "Ġtalked": 1655,
      "itten": 1656,
      "Ġdry": 1657,
      "Ġfaster": 1658,
      "Ġcookies": 1659,
      "Ġbrought": 1660,
      "fully": 1661,
      "Ġleg": 1662,
      "ross": 1663,
      "Ġmum": 1664,
      "zz": 1665,
      "Ġside": 1666,
      "ts": 1667,
      "From": 1668,
      "Ġsign": 1669,
      "ĠInside": 1670,
      "Ġsmart": 1671,
      "cy": 1672,
      "Ġrocks": 1673,
      "Ġsomeone": 1674,
      "His": 1675,
      "Ġpoin": 1676,
      "Ġsec": 1677,
      "Ġsharing": 1678,
      "Ġfox": 1679,
      "Ġwell": 1680,
      "Ġres": 1681,
      "Ġrel": 1682,
      "Ġhappen": 1683,
      "Ġbutton": 1684,
      "Ġbranch": 1685,
      "ĠLila": 1686,
      "Ġreally": 1687,
      "Ġfinished": 1688,
      "ence": 1689,
      "ards": 1690,
      "Ġdinner": 1691,
      "Ġsister": 1692,
      "Ġflying": 1693,
      "eddy": 1694,
      "Ġcontin": 1695,
      "Ġworried": 1696,
      "Ġele": 1697,
      "ĠTo": 1698,
      "Ġvisit": 1699,
      "ĠMaybe": 1700,
      "Ġbeach": 1701,
      "Ġque": 1702,
      "Ġsecret": 1703,
      "Ġel": 1704,
      "ĠSarah": 1705,
      "Ġking": 1706,
      "John": 1707,
      "gy": 1708,
      "Ġtoday": 1709,
      "Ġperfect": 1710,
      "Ġriver": 1711,
      "Ġeverything": 1712,
      "Ġsilly": 1713,
      "Ġshin": 1714,
      "ĠJoe": 1715,
      "Ġdanger": 1716,
      "ipp": 1717,
      "Ġchildren": 1718,
      "Ġgu": 1719,
      "ĠSoon": 1720,
      "Ġfield": 1721,
      "Ġfilled": 1722,
      "Ġfur": 1723,
      "Ġelse": 1724,
      "Ġsmiles": 1725,
      "Ġwelc": 1726,
      "ĠAt": 1727,
      "Ġwish": 1728,
      "ĠEm": 1729,
      "Ġsang": 1730,
      "While": 1731,
      "Ġgi": 1732,
      "ze": 1733,
      "Ġpudd": 1734,
      "Ġsnack": 1735,
      "Ġeating": 1736,
      "Ġrealized": 1737,
      "Ġpieces": 1738,
      "Ġpromised": 1739,
      "ord": 1740,
      "Ġspr": 1741,
      "Ġpig": 1742,
      "Ġfree": 1743,
      "Ġcontinued": 1744,
      "Ġbite": 1745,
      "ead": 1746,
      "Ġparents": 1747,
      "Ġcarefully": 1748,
      "ated": 1749,
      "Ġear": 1750,
      "itting": 1751,
      "Just": 1752,
      "Ġjar": 1753,
      "Maybe": 1754,
      "Ġcow": 1755,
      "Amy": 1756,
      "Ġblank": 1757,
      "Ġdrag": 1758,
      "stead": 1759,
      "Ġorange": 1760,
      "Ġmud": 1761,
      "Ġcrying": 1762,
      "Ġblanket": 1763,
      "Ġenough": 1764,
      "Ġrolled": 1765,
      "cket": 1766,
      "Ġsoup": 1767,
      "Ġsail": 1768,
      "Ġpurp": 1769,
      "imi": 1770,
      "Ġyes": 1771,
      "ale": 1772,
      "Ġdrink": 1773,
      "Ġsnake": 1774,
      "ses": 1775,
      "Ġboun": 1776,
      "Ġpet": 1777,
      "Ġcrab": 1778,
      "Ġlaughing": 1779,
      "Ġthrow": 1780,
      "Ġfairy": 1781,
      "Ġwords": 1782,
      "Ġamazing": 1783,
      "Ġbath": 1784,
      "ich": 1785,
      "Ġpurple": 1786,
      "ĠZ": 1787,
      "Ġwithout": 1788,
      "ire": 1789,
      "Ġbottle": 1790,
      "ĠBilly": 1791,
      "Ġgift": 1792,
      "Ġgrandma": 1793,
      "Fin": 1794,
      "used": 1795,
      "ons": 1796,
      "Ġpast": 1797,
      "Ġmoney": 1798,
      "iver": 1799,
      "fort": 1800,
      "Ġmail": 1801,
      "ĠGra": 1802,
      "Ġbarked": 1803,
      "Ġwagged": 1804,
      "Ġatt": 1805,
      "chool": 1806,
      "Ġmonkey": 1807,
      "Ġdoctor": 1808,
      "unch": 1809,
      "Ġbrown": 1810,
      "Ġmoved": 1811,
      "ises": 1812,
      "Ġasks": 1813,
      "Ġgetting": 1814,
      "Ġclosed": 1815,
      "Ġwhe": 1816,
      "Ġwelcome": 1817,
      "Ġsu": 1818,
      "Ġcandy": 1819,
      "Ġschool": 1820,
      "Ġmorning": 1821,
      "Ġowner": 1822,
      "gg": 1823,
      "Ġlon": 1824,
      "Ġmother": 1825,
      "Ġhigher": 1826,
      "Ġsitting": 1827,
      "Ġtreasure": 1828,
      ".âĢĿ": 1829,
      "Ġsmo": 1830,
      "!âĢĿ": 1831,
      "Ġdangerous": 1832,
      "Ġlonely": 1833,
      "ĠCh": 1834,
      "Ġliving": 1835,
      "Ġapples": 1836,
      "ush": 1837,
      "Ġshop": 1838,
      "ased": 1839,
      "Ġstrange": 1840,
      "vel": 1841,
      "Ġshining": 1842,
      "Ġroad": 1843,
      "ere": 1844,
      "Ġcreat": 1845,
      "ĠTommy": 1846,
      "una": 1847,
      "Ġpaw": 1848,
      "Ġra": 1849,
      "ey": 1850,
      "Ġshoes": 1851,
      "Ġpre": 1852,
      "ible": 1853,
      "Ġ-": 1854,
      "Ġstre": 1855,
      "Ġtalking": 1856,
      "althy": 1857,
      "Ġcaught": 1858,
      "Ġegg": 1859,
      "ol": 1860,
      "Ġpass": 1861,
      "me": 1862,
      "Ġlake": 1863,
      "Ġruns": 1864,
      "Ġbuck": 1865,
      "Ġletter": 1866,
      "Ġwings": 1867,
      "Ġchee": 1868,
      "fish": 1869,
      "Ġmad": 1870,
      "Ġfan": 1871,
      "asket": 1872,
      "Ġbasket": 1873,
      "ass": 1874,
      "Ġdragon": 1875,
      "app": 1876,
      "Mommy": 1877,
      "set": 1878,
      "cks": 1879,
      "Ġstone": 1880,
      "Ġthinks": 1881,
      "Ġstand": 1882,
      "Ġdelicious": 1883,
      "Ġnose": 1884,
      "Ġpuddle": 1885,
      "Ġtom": 1886,
      "ĠBl": 1887,
      "ĠMimi": 1888,
      "Ġbelie": 1889,
      "Ġfarmer": 1890,
      "Ġsame": 1891,
      "Ġyears": 1892,
      "board": 1893,
      "Ġteddy": 1894,
      "Ġbat": 1895,
      "isk": 1896,
      "itch": 1897,
      "Ġmine": 1898,
      "Ġsear": 1899,
      "Ġcoat": 1900,
      "ches": 1901,
      "igh": 1902,
      "Ġdays": 1903,
      "Ġbring": 1904,
      "Ġgentle": 1905,
      "Ġfit": 1906,
      "Ġstart": 1907,
      "Ġfinally": 1908,
      "Ġwhist": 1909,
      "Ġcray": 1910,
      "igg": 1911,
      "Ġscream": 1912,
      "Ġkite": 1913,
      "Ġpill": 1914,
      "phant": 1915,
      "arm": 1916,
      "Ġvill": 1917,
      "Ġcho": 1918,
      "Ġsinging": 1919,
      "ella": 1920,
      "sw": 1921,
      "ined": 1922,
      "Ġtasty": 1923,
      "Ġph": 1924,
      "Ġben": 1925,
      "Ġtrou": 1926,
      "Ġshell": 1927,
      "Ġherself": 1928,
      "Ġhoped": 1929,
      "Ġansw": 1930,
      "Ġwore": 1931,
      "Ġswings": 1932,
      "sy": 1933,
      "Ġhor": 1934,
      "Ġbelong": 1935,
      "Please": 1936,
      "Ġpush": 1937,
      "Ġbush": 1938,
      "iskers": 1939,
      "Ġcarrot": 1940,
      "Ġarri": 1941,
      "aughty": 1942,
      "Ġteach": 1943,
      "bow": 1944,
      "ract": 1945,
      "Ġnaughty": 1946,
      "Ġelephant": 1947,
      "Ġdropped": 1948,
      "Ġshap": 1949,
      "ier": 1950,
      "Ġcoll": 1951,
      "sc": 1952,
      "Ġteac": 1953,
      "emy": 1954,
      "Ġwoke": 1955,
      "ball": 1956,
      "Ġpile": 1957,
      "Ġhiding": 1958,
      "Ġcour": 1959,
      "isa": 1960,
      "erry": 1961,
      "Ġtouc": 1962,
      "Ġmin": 1963,
      "Ġpuppy": 1964,
      "'ll": 1965,
      "Ġseem": 1966,
      "llie": 1967,
      "Ġtwins": 1968,
      "ama": 1969,
      "Ġlunch": 1970,
      "Ġbow": 1971,
      "Ġsack": 1972,
      "Ġpers": 1973,
      "Ġcourse": 1974,
      "Ġcheered": 1975,
      "Ġshapes": 1976,
      "ĠJen": 1977,
      "Ġgrew": 1978,
      "fused": 1979,
      "Ġrope": 1980,
      "Ġvillage": 1981,
      "irth": 1982,
      "irthday": 1983,
      "Ġjuice": 1984,
      "ipped": 1985,
      "Ġrainbow": 1986,
      "Ġspin": 1987,
      "OK": 1988,
      "Jack": 1989,
      "Ġshook": 1990,
      "Ġspoon": 1991,
      "Ġbench": 1992,
      "Ġstreet": 1993,
      "Ġfence": 1994,
      "Ġcute": 1995,
      "ĠFred": 1996,
      "Ġrob": 1997,
      "Ġnut": 1998,
      "Ġcheese": 1999,
      "Ġprob": 2000,
      "Ġtouched": 2001,
      "idge": 2002,
      "col": 2003,
      "Ġjoy": 2004,
      "ĠWhiskers": 2005,
      "Ġarrived": 2006,
      "Ġseed": 2007,
      "Ġwar": 2008,
      "Ġteacher": 2009,
      "Ġcorn": 2010,
      "Good": 2011,
      "Ġable": 2012,
      "Ġforever": 2013,
      "Ġbell": 2014,
      "Ġfew": 2015,
      "Ġcarry": 2016,
      "Ġmost": 2017,
      "Ġplane": 2018,
      "ĠBlue": 2019,
      "lem": 2020,
      "Ġeas": 2021,
      "Ġsounds": 2022,
      "lla": 2023,
      "Ġdes": 2024,
      "Ġspo": 2025,
      "Ġproblem": 2026,
      "Ġbirthday": 2027,
      "Ġpower": 2028,
      "Ġinc": 2029,
      "umb": 2030,
      "br": 2031,
      "Ġbugs": 2032,
      "ilk": 2033,
      "Ġwonderful": 2034,
      "Ġdolls": 2035,
      "Ġbusy": 2036,
      "ato": 2037,
      "irp": 2038,
      "eb": 2039,
      "Ġwra": 2040,
      "Ġpromise": 2041,
      "ĠThank": 2042,
      "Ġfeels": 2043,
      "ian": 2044,
      "eter": 2045,
      "ĠEmma": 2046,
      "Ġbread": 2047,
      "Ġneck": 2048,
      "Finally": 2049,
      "Ġmilk": 2050,
      "Ġrobot": 2051,
      "Ġrec": 2052,
      "Ġshy": 2053,
      "ountain": 2054,
      "Ġkiss": 2055,
      "irt": 2056,
      "Ġheart": 2057,
      "Ġband": 2058,
      "Ġcave": 2059,
      "Ġpocket": 2060,
      "ub": 2061,
      "Ġhelpful": 2062,
      "gly": 2063,
      "Ġslowly": 2064,
      "Ġbelieve": 2065,
      "Ġshake": 2066,
      "umpy": 2067,
      "eared": 2068,
      "Ġpatient": 2069,
      "Ġpop": 2070,
      "Ġob": 2071,
      "arp": 2072,
      "Ġlive": 2073,
      "Ġstorm": 2074,
      "Ġholding": 2075,
      "Ġugly": 2076,
      "Ġtowards": 2077,
      "Ġupset": 2078,
      "Ġturt": 2079,
      "Ġshr": 2080,
      "adow": 2081,
      "Ġcover": 2082,
      "Ġkitten": 2083,
      "ost": 2084,
      "ĠRemy": 2085,
      "Ġsharp": 2086,
      "Ġdisapp": 2087,
      "Ġstories": 2088,
      "Ġsuc": 2089,
      "Ġhoney": 2090,
      "ove": 2091,
      "ĠBella": 2092,
      "read": 2093,
      "Ġnoises": 2094,
      "ĠLe": 2095,
      "Ġcir": 2096,
      "Ġballs": 2097,
      "Ġspark": 2098,
      "Ġgray": 2099,
      "Ġdist": 2100,
      "Ġdirt": 2101,
      "oggy": 2102,
      "Ġlate": 2103,
      "Ġdriver": 2104,
      "Ġseat": 2105,
      "Ġbucket": 2106,
      "Ġmeet": 2107,
      "Ġyoung": 2108,
      "Ġamazed": 2109,
      "Ġturtle": 2110,
      "alm": 2111,
      "Ġspid": 2112,
      "Ġtreats": 2113,
      "Ġmagical": 2114,
      "unt": 2115,
      "ator": 2116,
      "Ġglow": 2117,
      "Ġseek": 2118,
      "Ġzoom": 2119,
      "Ġlem": 2120,
      "Ġsandw": 2121,
      "fortable": 2122,
      "umber": 2123,
      "Ġtrip": 2124,
      "Ġmist": 2125,
      "ourn": 2126,
      "Ġsplas": 2127,
      "Ġmark": 2128,
      "Ġjourn": 2129,
      "Ġfold": 2130,
      "Ġmach": 2131,
      "Ġpuzz": 2132,
      "Ġpart": 2133,
      "ling": 2134,
      "Ġhorse": 2135,
      "Ġorgan": 2136,
      "Ġwild": 2137,
      "Ġprincess": 2138,
      "pping": 2139,
      "oose": 2140,
      "Ġcookie": 2141,
      "Sure": 2142,
      "ens": 2143,
      "Ġhugs": 2144,
      "ĠMark": 2145,
      "Ġtaking": 2146,
      "ung": 2147,
      "Ġwheel": 2148,
      "epend": 2149,
      "Ġcloth": 2150,
      "ĠLisa": 2151,
      "Ġsug": 2152,
      "Ġinstead": 2153,
      "Ġbubb": 2154,
      "Ġstring": 2155,
      "Ġnet": 2156,
      "Ġdrove": 2157,
      "iling": 2158,
      "Ġrude": 2159,
      "Ġhuge": 2160,
      "Ġcoin": 2161,
      "Ġstars": 2162,
      "ĠJim": 2163,
      "Ġfighting": 2164,
      "Be": 2165,
      "Ġspicy": 2166,
      "Ġlucky": 2167,
      "Of": 2168,
      "Ġcraw": 2169,
      "Hey": 2170,
      "Ġbone": 2171,
      "Ġinv": 2172,
      "ĠGrandma": 2173,
      "ors": 2174,
      "not": 2175,
      "Ġca": 2176,
      "pper": 2177,
      "Ġforget": 2178,
      "up": 2179,
      "Ġdi": 2180,
      "aur": 2181,
      "Ġsal": 2182,
      "ĠFinally": 2183,
      "Ġcannot": 2184,
      "Ġwhistle": 2185,
      "Ġcard": 2186,
      "Ġsick": 2187,
      "Ġpath": 2188,
      "Ġcou": 2189,
      "Ġspider": 2190,
      "Ġwide": 2191,
      "Lila": 2192,
      "Ġfoot": 2193,
      "Ġsnowman": 2194,
      "Ġlife": 2195,
      "Ġsongs": 2196,
      "Ġpillow": 2197,
      "ize": 2198,
      "ular": 2199,
      "ĠJust": 2200,
      "Later": 2201,
      "est": 2202,
      "ĠAnn": 2203,
      "ert": 2204,
      "Ġfixed": 2205,
      "Ġgiant": 2206,
      "oph": 2207,
      "rill": 2208,
      "Ġnod": 2209,
      "Ġboss": 2210,
      "Ġlast": 2211,
      "Ġcomes": 2212,
      "Ġjoke": 2213,
      "Ġmoon": 2214,
      "Ġtaste": 2215,
      "den": 2216,
      "Ġmachine": 2217,
      "Ġgrumpy": 2218,
      "Ġwave": 2219,
      "Ġthin": 2220,
      "Ġdrive": 2221,
      "Ġcart": 2222,
      "Ġash": 2223,
      "Ġser": 2224,
      "Ġgrab": 2225,
      "Ġpeace": 2226,
      "lower": 2227,
      "Ġdaddy": 2228,
      "ĠOn": 2229,
      "ĠLeo": 2230,
      "ery": 2231,
      "Ġsel": 2232,
      "Ġshelf": 2233,
      "Ġhidden": 2234,
      "erest": 2235,
      "Ġsuddenly": 2236,
      "Ġwasn": 2237,
      "Ġwrite": 2238,
      "Ġlanded": 2239,
      "Ġconfused": 2240,
      "Ġring": 2241,
      "Ġchange": 2242,
      "Ġworm": 2243,
      "Ġinterest": 2244,
      "Ġchased": 2245,
      "oop": 2246,
      "Ġfruits": 2247,
      "Ġsour": 2248,
      "ity": 2249,
      "Ġmyster": 2250,
      "Ġbark": 2251,
      "Ġrad": 2252,
      "Ġsmooth": 2253,
      "ĠCome": 2254,
      "Ġadventures": 2255,
      "Ġval": 2256,
      "Ġstepped": 2257,
      "Ġfle": 2258,
      "ope": 2259,
      "Ġoven": 2260,
      "Ġtakes": 2261,
      "Ġmissed": 2262,
      "Ġselfish": 2263,
      "kin": 2264,
      "Ġsheep": 2265,
      "Ġmessy": 2266,
      "To": 2267,
      "Ġacross": 2268,
      "Ġent": 2269,
      "Ġexp": 2270,
      "to": 2271,
      "Ġce": 2272,
      "Ġlater": 2273,
      "elly": 2274,
      "ĠN": 2275,
      "ife": 2276,
      "Ġsticks": 2277,
      "Ġtie": 2278,
      "St": 2279,
      "ever": 2280,
      "ĠLuna": 2281,
      "Ġbought": 2282,
      "Ġstep": 2283,
      "Ġdrew": 2284,
      "Ġtea": 2285,
      "pect": 2286,
      "Ġban": 2287,
      "irpy": 2288,
      "box": 2289,
      "?âĢĿ": 2290,
      "Ġwash": 2291,
      "Ġlay": 2292,
      "Ġpour": 2293,
      "Ġbeak": 2294,
      "ose": 2295,
      "Ġjog": 2296,
      "Ġgrate": 2297,
      "Ġducks": 2298,
      "Ġspe": 2299,
      "Ġlegs": 2300,
      "ugg": 2301,
      "Ġfil": 2302,
      "ĠBu": 2303,
      "Ġemp": 2304,
      "mer": 2305,
      "Ġhope": 2306,
      "Ġempty": 2307,
      "Ġslid": 2308,
      "Ġfeather": 2309,
      "Ġsleepy": 2310,
      "Ġdrum": 2311,
      "amed": 2312,
      "ars": 2313,
      "eth": 2314,
      "Ġzoo": 2315,
      "Ġpan": 2316,
      "Ġphone": 2317,
      "Ġgrateful": 2318,
      "Ġfing": 2319,
      "ions": 2320,
      "Ġlemon": 2321,
      "let": 2322,
      "ĠCat": 2323,
      "Ġclever": 2324,
      "ĠMolly": 2325,
      "Ġsmelly": 2326,
      "Ġimag": 2327,
      "Ġsplash": 2328,
      "Ġinteresting": 2329,
      "ĠJill": 2330,
      "Ġsave": 2331,
      "Ġchick": 2332,
      "Ġcalm": 2333,
      "Ġmed": 2334,
      "Ġwatching": 2335,
      "Soon": 2336,
      "izzy": 2337,
      "izz": 2338,
      "Ġplate": 2339,
      "Ġign": 2340,
      "yard": 2341,
      "Ġclouds": 2342,
      "Ġbanan": 2343,
      "Ġline": 2344,
      "Ġfaces": 2345,
      "Ġba": 2346,
      "Ġact": 2347,
      "Ġlift": 2348,
      "Ġthough": 2349,
      "Ġwolf": 2350,
      "Ġbackyard": 2351,
      "wel": 2352,
      "Ġseemed": 2353,
      "Ġdogs": 2354,
      "Ġspray": 2355,
      "Come": 2356,
      "Ġprot": 2357,
      "Ġwhole": 2358,
      "Ġmot": 2359,
      "Ġfancy": 2360,
      "ĠDaddy": 2361,
      "Ġquest": 2362,
      "Ġarms": 2363,
      "Ġpuzzle": 2364,
      "Ġhealthy": 2365,
      "Ġsupp": 2366,
      "ward": 2367,
      "Ġfinish": 2368,
      "erly": 2369,
      "Ġalong": 2370,
      "llo": 2371,
      "Ġrocket": 2372,
      "Ġexplain": 2373,
      "dge": 2374,
      "Ġeasy": 2375,
      "Ġjewel": 2376,
      "ont": 2377,
      "Ġpract": 2378,
      "Ġjelly": 2379,
      "ĠChirpy": 2380,
      "Ġtid": 2381,
      "Ġfake": 2382,
      "Ġcrayons": 2383,
      "Ġwondered": 2384,
      "Ġmaybe": 2385,
      "Ġscar": 2386,
      "Ġship": 2387,
      "Ġnothing": 2388,
      "onest": 2389,
      "Ġemb": 2390,
      "iger": 2391,
      "Ġpool": 2392,
      "Ġlonger": 2393,
      "Ġanyone": 2394,
      "ĠBe": 2395,
      "ĠJerry": 2396,
      "ually": 2397,
      "Ġfront": 2398,
      "Ġworking": 2399,
      "Ġgives": 2400,
      "irr": 2401,
      "Ġpack": 2402,
      "Ġsuch": 2403,
      "ĠBunny": 2404,
      "ocked": 2405,
      "ment": 2406,
      "Ġbossy": 2407,
      "ĠDoggy": 2408,
      "Ġtrouble": 2409,
      "Ġsmelled": 2410,
      "Ġsaved": 2411,
      "Ġpin": 2412,
      "rass": 2413,
      "Ġneigh": 2414,
      "arrass": 2415,
      "iting": 2416,
      "Ġhonest": 2417,
      "Ġav": 2418,
      "arge": 2419,
      "Ġembarrass": 2420,
      "Ġvan": 2421,
      "Ġforgive": 2422,
      "Ġtidy": 2423,
      "Ġweak": 2424,
      "urse": 2425,
      "Ġputs": 2426,
      "unk": 2427,
      "Ġkick": 2428,
      "Ġshirt": 2429,
      "ĠWith": 2430,
      "Ġmind": 2431,
      "ĠOllie": 2432,
      "Ġneighb": 2433,
      "Ġplants": 2434,
      "Ġsol": 2435,
      "ĠMomo": 2436,
      "Ġgently": 2437,
      "Ġcozy": 2438,
      "orrow": 2439,
      "ming": 2440,
      "Ġexplor": 2441,
      "sp": 2442,
      "Ġmistake": 2443,
      "Ġyog": 2444,
      "oc": 2445,
      "oomy": 2446,
      "Ġpointed": 2447,
      "Ġlad": 2448,
      "Ġaf": 2449,
      "Ġstood": 2450,
      "ork": 2451,
      "Ġonto": 2452,
      "Ġjumping": 2453,
      "Ġwaiting": 2454,
      "Ġprince": 2455,
      "Ġcross": 2456,
      "Ġlock": 2457,
      "Ġcheer": 2458,
      "Ġqueen": 2459,
      "ĠWhy": 2460,
      "ĠMary": 2461,
      "Ġwing": 2462,
      "ones": 2463,
      "we": 2464,
      "Ġlarge": 2465,
      "Ġlovely": 2466,
      "ult": 2467,
      "Ġsur": 2468,
      "Ġret": 2469,
      "And": 2470,
      "Ġdeer": 2471,
      "Ġchew": 2472,
      "Ġcouch": 2473,
      "Ġbal": 2474,
      "Ġstret": 2475,
      "aughter": 2476,
      "era": 2477,
      "ĠTheir": 2478,
      "Ġplaces": 2479,
      "ĠMy": 2480,
      "Ġladder": 2481,
      "oof": 2482,
      "Ġreturn": 2483,
      "raid": 2484,
      "Ġants": 2485,
      "Ġdish": 2486,
      "Ġafraid": 2487,
      "Ġcleaned": 2488,
      "Ġtomorrow": 2489,
      "Ġbuilding": 2490,
      "Ġsandwich": 2491,
      "Ġperson": 2492,
      "Sally": 2493,
      "ned": 2494,
      "Ġpretended": 2495,
      "Ġbounce": 2496,
      "Ġwip": 2497,
      "gest": 2498,
      "Ġmatch": 2499,
      "Ġrich": 2500,
      "uce": 2501,
      "Ġpizz": 2502,
      "Ġgather": 2503,
      "Ġsearch": 2504,
      "Ġboring": 2505,
      "oman": 2506,
      "ĠSomet": 2507,
      "Ġteeth": 2508,
      "Ġhum": 2509,
      "Kitty": 2510,
      "My": 2511,
      "aced": 2512,
      "Ġdaughter": 2513,
      "Ġwoman": 2514,
      "Ġscarf": 2515,
      "Ġgoes": 2516,
      "ĠTogether": 2517,
      "Ġlaw": 2518,
      "Ġstra": 2519,
      "Ġswimming": 2520,
      "Ġfurry": 2521,
      "Ġsplashed": 2522,
      "Ġpri": 2523,
      "Ġloves": 2524,
      "Ġtrue": 2525,
      "Ġscreamed": 2526,
      "Ġlazy": 2527,
      "Ġgen": 2528,
      "Ġanswer": 2529,
      "Ġnumber": 2530,
      "Ġeag": 2531,
      "Ġashamed": 2532,
      "Ġpizza": 2533,
      "aw": 2534,
      "Ġappeared": 2535,
      "Ġfear": 2536,
      "Ġnearby": 2537,
      "Ġpowerful": 2538,
      "Ġflag": 2539,
      "ĠSt": 2540,
      "Ġhang": 2541,
      "vous": 2542,
      "Ġclown": 2543,
      "ek": 2544,
      "Ġchase": 2545,
      "Ġmotor": 2546,
      "Ġwand": 2547,
      "ĠTV": 2548,
      "Ġrub": 2549,
      "Ġsuccess": 2550,
      "Ġchocol": 2551,
      "ĠIf": 2552,
      "Ġcreative": 2553,
      "Ġtrust": 2554,
      "Ġwearing": 2555,
      "Ġnoisy": 2556,
      "Ġmatter": 2557,
      "pa": 2558,
      "Ġdig": 2559,
      "Ġhello": 2560,
      "Ġner": 2561,
      "Ġtool": 2562,
      "Ġsaf": 2563,
      "ĠBird": 2564,
      "ado": 2565,
      "Ġnervous": 2566,
      "elp": 2567,
      "Ġtest": 2568,
      "Ġsmiling": 2569,
      "Ġsold": 2570,
      "icked": 2571,
      "oppy": 2572,
      "osaur": 2573,
      "Ġcircle": 2574,
      "mb": 2575,
      "Ġmap": 2576,
      "Ġdrank": 2577,
      "Ġclass": 2578,
      "Ġtries": 2579,
      "Ġchocolate": 2580,
      "ĠPlease": 2581,
      "Ġimpress": 2582,
      "Ġknee": 2583,
      "Ġgener": 2584,
      "Ġdinosaur": 2585,
      "Ġpolite": 2586,
      "Ġmirr": 2587,
      "ĠBobby": 2588,
      "ĠTiny": 2589,
      "Ġballoons": 2590,
      "Ġgold": 2591,
      "Ġrare": 2592,
      "Ġprotect": 2593,
      "Ġcand": 2594,
      "Stop": 2595,
      "Ġcarried": 2596,
      "ĠGo": 2597,
      "ensive": 2598,
      "Ġap": 2599,
      "Ġshadow": 2600,
      "Ġmirror": 2601,
      "ĠDon": 2602,
      "Ġbald": 2603,
      "Ġgun": 2604,
      "ina": 2605,
      "Ġexpensive": 2606,
      "Ġreg": 2607,
      "iff": 2608,
      "Ġmysterious": 2609,
      "ĠSp": 2610,
      "Ġpump": 2611,
      "Ġnote": 2612,
      "Ġhero": 2613,
      "Ġmarch": 2614,
      "Ġhar": 2615,
      "arl": 2616,
      "Ġicy": 2617,
      "Ġrespect": 2618,
      "Ġweird": 2619,
      "Ġsnee": 2620,
      "Ġcri": 2621,
      "Ġgate": 2622,
      "Ġsoap": 2623,
      "rag": 2624,
      "ute": 2625,
      "issors": 2626,
      "Ġthese": 2627,
      "Ġpoor": 2628,
      "Ġtowel": 2629,
      "Ġwhale": 2630,
      "Ġfeet": 2631,
      "Ġtape": 2632,
      "Ġdizzy": 2633,
      "itter": 2634,
      "Ġgenerous": 2635,
      "ndpa": 2636,
      "Ġpres": 2637,
      "ĠBenny": 2638,
      "nic": 2639,
      "Ġdisco": 2640,
      "Help": 2641,
      "ventually": 2642,
      "Ġpicnic": 2643,
      "Ġmic": 2644,
      "Ġlead": 2645,
      "Ġsque": 2646,
      "Ġembarrassed": 2647,
      "Ġjourney": 2648,
      "Ġsugar": 2649,
      "isp": 2650,
      "scape": 2651,
      "Ġboot": 2652,
      "Ġtent": 2653,
      "Ġpeaceful": 2654,
      "Ġfat": 2655,
      "ĠBear": 2656,
      "Ġscissors": 2657,
      "Tommy": 2658,
      "Ġtasted": 2659,
      "Ġyelled": 2660,
      "Ġtick": 2661,
      "Ġmel": 2662,
      "Ġbrush": 2663,
      "Ġdancing": 2664,
      "ness": 2665,
      "Ġglue": 2666,
      "Ġhur": 2667,
      "Ġrough": 2668,
      "Ġclap": 2669,
      "Ġbridge": 2670,
      "ote": 2671,
      "Ġdecor": 2672,
      "Ġcloset": 2673,
      "Ġcrown": 2674,
      "Ġstir": 2675,
      "ual": 2676,
      "imp": 2677,
      "Ġprint": 2678,
      "ĠSometimes": 2679,
      "owed": 2680,
      "airs": 2681,
      "ĠHow": 2682,
      "ume": 2683,
      "Ġcap": 2684,
      "Ġlamp": 2685,
      "Ġvase": 2686,
      "Ġscare": 2687,
      "lebr": 2688,
      "Ġrelie": 2689,
      "lves": 2690,
      "any": 2691,
      "Ġeld": 2692,
      "Ġtele": 2693,
      "Ġcelebr": 2694,
      "Ġgigg": 2695,
      "Ġwhisp": 2696,
      "Ġlog": 2697,
      "Ġsco": 2698,
      "Ġblow": 2699,
      "Ġpainted": 2700,
      "ĠDucky": 2701,
      "Ġpay": 2702,
      "erries": 2703,
      "Ġwis": 2704,
      "Ġberries": 2705,
      "Ġmixed": 2706,
      "Ġspread": 2707,
      "Ġwouldn": 2708,
      "Ġcage": 2709,
      "Ġbake": 2710,
      "rob": 2711,
      "getable": 2712,
      "Ġmountain": 2713,
      "Ġadm": 2714,
      "Ġdrawing": 2715,
      "Ġbecome": 2716,
      "Ġfamous": 2717,
      "Ġbean": 2718,
      "Ġknocked": 2719,
      "Ġnorm": 2720,
      "Ġvegetable": 2721,
      "asp": 2722,
      "Ġkicked": 2723,
      "ustr": 2724,
      "Ġshark": 2725,
      "ser": 2726,
      "Ġincred": 2727,
      "Ġlose": 2728,
      "Ġnormal": 2729,
      "Ġwrap": 2730,
      "ced": 2731,
      "Ġgroup": 2732,
      "Ġthick": 2733,
      "Ġfine": 2734,
      "Ġglass": 2735,
      "Ġignor": 2736,
      "Ġclock": 2737,
      "Ġteam": 2738,
      "Ġelderly": 2739,
      "Ġclear": 2740,
      "Ġcorner": 2741,
      "Ġfrustr": 2742,
      "Ġmighty": 2743,
      "robe": 2744,
      "Ġcone": 2745,
      "Ġincredible": 2746,
      "ĠBr": 2747,
      "ighed": 2748,
      "Dad": 2749,
      "Ġmoms": 2750,
      "Ġbalance": 2751,
      "Ġsock": 2752,
      "Ġspace": 2753,
      "Ġjam": 2754,
      "ragile": 2755,
      "Ġfright": 2756,
      "Ġbranches": 2757,
      "Ġorganized": 2758,
      "Ġroar": 2759,
      "port": 2760,
      "Ġsword": 2761,
      "alous": 2762,
      "Ġguess": 2763,
      "ĠMama": 2764,
      "Ġfool": 2765,
      "Ġsell": 2766,
      "Ġfeed": 2767,
      "ĠSome": 2768,
      "Ġwhich": 2769,
      "Ġhorn": 2770,
      "Ġpresent": 2771,
      "Ġjealous": 2772,
      "Ġyarn": 2773,
      "ony": 2774,
      "Ġfragile": 2775,
      "Ġburn": 2776,
      "Ġunderstood": 2777,
      "Ġmis": 2778,
      "Ġstubb": 2779,
      "Ġter": 2780,
      "Ġfrustrated": 2781,
      "Where": 2782,
      "ray": 2783,
      "Ġhose": 2784,
      "cient": 2785,
      "Ġspent": 2786,
      "Ġshoe": 2787,
      "Ġtaught": 2788,
      "Ġstubborn": 2789,
      "Ġtwist": 2790,
      "Ġcreature": 2791,
      "Ġchest": 2792,
      "Ġspoiled": 2793,
      "Ġrelieved": 2794,
      "Ġancient": 2795,
      "ique": 2796,
      "Ġwake": 2797,
      "Ġfier": 2798,
      "Ġpray": 2799,
      "Ġfierce": 2800,
      "Ġeggs": 2801,
      "Ġcab": 2802,
      "Ġterri": 2803,
      "Ġbarn": 2804,
      "Ġpumpkin": 2805,
      "Ġcomfortable": 2806,
      "Ġord": 2807,
      "ym": 2808,
      "Ġfrightened": 2809,
      "orry": 2810,
      "Ġtoug": 2811,
      "Ġunique": 2812,
      "Ġmeasure": 2813,
      "Ġgoat": 2814,
      "Ġwagon": 2815,
      "Ġunus": 2816,
      "Ġbreath": 2817,
      "Ġfoolish": 2818,
      "Ġuseful": 2819,
      "Ġexploring": 2820,
      "dle": 2821,
      "Ġstraw": 2822,
      "Ġunusual": 2823,
      "Ġdug": 2824,
      "Ġclay": 2825,
      "Ġdiscover": 2826,
      "Ġtomato": 2827,
      "ĠPe": 2828,
      "Ġdead": 2829,
      "Ġfinding": 2830,
      "Ġpolice": 2831,
      "Ġwrote": 2832,
      "Ġclum": 2833,
      "Ġexam": 2834,
      "lace": 2835,
      "Ġwaves": 2836,
      "Ġsquare": 2837,
      "Ġhears": 2838,
      "Ġcabin": 2839,
      "Ġtells": 2840,
      "Ġnecklace": 2841,
      "Ġdull": 2842,
      "Ġclumsy": 2843,
      "Ġtough": 2844,
      "Ġbubbles": 2845,
      "Ġnosy": 2846,
      "kn": 2847,
      "Ġsearched": 2848,
      "Together": 2849,
      "Ġwashed": 2850,
      "Ġbathroom": 2851,
      "Ġpaws": 2852,
      "bby": 2853,
      "ond": 2854,
      "unn": 2855,
      "anged": 2856,
      "Ġboard": 2857,
      "fic": 2858,
      "known": 2859,
      "Ġasking": 2860,
      "Ġcrazy": 2861,
      "Ġthankful": 2862,
      "Ġbitter": 2863,
      "Ġsunf": 2864,
      "yal": 2865,
      "Ġpir": 2866,
      "berry": 2867,
      "Ġind": 2868,
      "alk": 2869,
      "Ġdiffic": 2870,
      "Ġrose": 2871,
      "cil": 2872,
      "Ġswan": 2873,
      "Ġbloom": 2874,
      "Ġunknown": 2875,
      "ĠElla": 2876,
      "Ġcovered": 2877,
      "Ġdifficult": 2878,
      "Ġadd": 2879,
      "Ġpencil": 2880,
      "Ġfinger": 2881,
      "Ġham": 2882,
      "Ġhoop": 2883,
      "Ġjet": 2884,
      "Ġwitch": 2885,
      "Ġdrop": 2886,
      "Me": 2887,
      "Ġ'": 2888,
      "Ġchicken": 2889,
      "Ġgloomy": 2890,
      "apped": 2891,
      "Ġloyal": 2892,
      "als": 2893,
      "Here": 2894,
      "Ġwealthy": 2895,
      "com": 2896,
      "light": 2897,
      "Ġunl": 2898,
      "Ġcats": 2899,
      "Ġending": 2900,
      "Ġguit": 2901,
      "bled": 2902,
      "shine": 2903,
      "Ġdove": 2904,
      "Ġjoined": 2905,
      "Ġcher": 2906,
      "anut": 2907,
      "Ġmov": 2908,
      "Ġterrible": 2909,
      "Ġyours": 2910,
      "iant": 2911,
      "ĠU": 2912,
      "ĠRex": 2913,
      "Ġsalad": 2914,
      "ĠAndy": 2915,
      "Ġnuts": 2916,
      "Ġrat": 2917,
      "ground": 2918,
      "Ġtiger": 2919,
      "Ġpotato": 2920,
      "Ġmask": 2921,
      "xible": 2922,
      "selves": 2923,
      "Ġvalue": 2924,
      "Ġchanged": 2925,
      "Ġmoving": 2926,
      "Ġexciting": 2927,
      "ormous": 2928,
      "ĠMany": 2929,
      "Ġbody": 2930,
      "ĠTr": 2931,
      "Ġtoast": 2932,
      "Ġrecord": 2933,
      "erp": 2934,
      "Ġzip": 2935,
      "Ġcheap": 2936,
      "Ġdisg": 2937,
      "Ġguitar": 2938,
      "irsty": 2939,
      "Ġknowing": 2940,
      "Ġadventur": 2941,
      "Ġyourself": 2942,
      "Ġenormous": 2943,
      "Ġhairy": 2944,
      "Every": 2945,
      "Ġshoot": 2946,
      "ĠBrown": 2947,
      "Ġbored": 2948,
      "Ġpepper": 2949,
      "Ġremind": 2950,
      "ory": 2951,
      "land": 2952,
      "Ġacorn": 2953,
      "Ġadventurous": 2954,
      "Ġsunshine": 2955,
      "Ġsmaller": 2956,
      "Ġstuff": 2957,
      "Ġhats": 2958,
      "Ġsolve": 2959,
      "Ġflexible": 2960,
      "Ġcost": 2961,
      "rilliant": 2962,
      "Ġknife": 2963,
      "ĠJimmy": 2964,
      "Ġperform": 2965,
      "Ġsnacks": 2966,
      "Ġnods": 2967,
      "Ġshore": 2968,
      "Ġbrilliant": 2969,
      "Ġthirsty": 2970,
      "Ġdelicate": 2971,
      "Ġfrown": 2972,
      "Ġdisgust": 2973,
      "Ġcollect": 2974,
      "Ġstri": 2975,
      "Ġseeds": 2976,
      "Ġcounted": 2977,
      "Ġasleep": 2978,
      "Ġbanana": 2979,
      "reen": 2980,
      "Ġmailbox": 2981,
      "iness": 2982,
      "Ġdough": 2983,
      "Ġtrick": 2984,
      "Ġneighbor": 2985,
      "ungle": 2986,
      "Ġheal": 2987,
      "live": 2988,
      "Who": 2989,
      "Ġstage": 2990,
      "ident": 2991,
      "Ġmarket": 2992,
      "Ġcube": 2993,
      "Ġstat": 2994,
      "Ġjungle": 2995,
      "Ġsquee": 2996,
      "mbre": 2997,
      "Ġexplained": 2998,
      "Jim": 2999,
      "ates": 3000,
      "Ġumbre": 3001,
      "Ġdisgusting": 3002,
      "fted": 3003,
      "Ġlab": 3004,
      "Ġjolly": 3005,
      "Ġflash": 3006,
      "und": 3007,
      "Ġfridge": 3008,
      "inal": 3009,
      "pid": 3010,
      "ilt": 3011,
      "Ġcrane": 3012,
      "corn": 3013,
      "Ġsuit": 3014,
      "Ġrh": 3015,
      "iddle": 3016,
      "Ġsunflower": 3017,
      "Ġtimes": 3018,
      "Ġcaterp": 3019,
      "Ġcaterpill": 3020,
      "ĠAl": 3021,
      "Ġrelax": 3022,
      "Ġshiver": 3023,
      "Ġfour": 3024,
      "Ġisland": 3025,
      "iginal": 3026,
      "Ġharm": 3027,
      "ict": 3028,
      "ĠWhile": 3029,
      "ying": 3030,
      "Ġstupid": 3031,
      "Ġmedic": 3032,
      "ĠInstead": 3033,
      "Ġcomb": 3034,
      "Ġgoose": 3035,
      "Ġcro": 3036,
      "edient": 3037,
      "ĠWill": 3038,
      "Ġstove": 3039,
      "If": 3040,
      "Are": 3041,
      "Ġindepend": 3042,
      "Mum": 3043,
      "most": 3044,
      "Ġspring": 3045,
      "Ġgem": 3046,
      "Ġbatter": 3047,
      "Ġsighed": 3048,
      "Ġvegetables": 3049,
      "Ġstones": 3050,
      "pes": 3051,
      "Ġshine": 3052,
      "How": 3053,
      "Ġmedicine": 3054,
      "Ġdepend": 3055,
      "Ġrug": 3056,
      "ĠYour": 3057,
      "Ġcareless": 3058,
      "Ġoriginal": 3059,
      "Ġstamp": 3060,
      "Ġgar": 3061,
      "Ġcries": 3062,
      "Inside": 3063,
      "gu": 3064,
      "Ġcarrots": 3065,
      "Ġscr": 3066,
      "Ġsuccessful": 3067,
      "Ġsauce": 3068,
      "Ġjeep": 3069,
      "Ġpopcorn": 3070,
      "Ġmeal": 3071,
      "Ġobedient": 3072,
      "Ġalmost": 3073,
      "Ġmiddle": 3074,
      "Ġmagn": 3075,
      "Ġstudy": 3076,
      "Ġindependent": 3077,
      "Ġfearful": 3078,
      "Ġjack": 3079,
      "met": 3080,
      "inky": 3081,
      "Sorry": 3082,
      "ĠSammy": 3083,
      "Ġescape": 3084,
      "Ġcaterpillar": 3085,
      "Ġserious": 3086,
      "Ġpeanut": 3087,
      "Ġbedroom": 3088,
      "There": 3089,
      "Ġeager": 3090,
      "aken": 3091,
      "Ġgets": 3092,
      "Ġparrot": 3093,
      "Ġstatue": 3094,
      "Ġhelmet": 3095,
      "Ġpebb": 3096,
      "ĠNo": 3097,
      "Ġfountain": 3098,
      "Ġang": 3099,
      "Ġraven": 3100,
      "Ġpasta": 3101,
      "Ġumbrella": 3102,
      "Ġcompet": 3103,
      "Ġjacket": 3104,
      "Ġbelonged": 3105,
      "Ġdest": 3106,
      "Ġfilthy": 3107,
      "Ġdesign": 3108,
      "Ġborrow": 3109,
      "Ġcam": 3110,
      "erable": 3111,
      "Ġhouses": 3112,
      "Ġprize": 3113,
      "Ġhay": 3114,
      "Ġbrace": 3115,
      "Ġstanding": 3116,
      "Ġmiserable": 3117,
      "Ġraced": 3118,
      "Ġtaken": 3119,
      "ages": 3120,
      "Ġfork": 3121,
      "Ġcrayon": 3122,
      "Ġpainting": 3123,
      "io": 3124,
      "Ġtriang": 3125,
      "Ġimpressive": 3126,
      "Ġchoose": 3127,
      "Ġfig": 3128,
      "Ġtied": 3129,
      "iable": 3130,
      "Ġspotted": 3131,
      "Ġlifted": 3132,
      "Ġslipped": 3133,
      "ours": 3134,
      "Ġtank": 3135,
      "Ġthoughtful": 3136,
      "Ġdependable": 3137,
      "Ġsteal": 3138,
      "Ġgarage": 3139,
      "enny": 3140,
      "Ġbuilt": 3141,
      "Ġmush": 3142,
      "Ġer": 3143,
      "ipe": 3144,
      "Ġmole": 3145,
      "Ġcrawled": 3146,
      "Ġscale": 3147,
      "Ġboats": 3148,
      "Ġpant": 3149,
      "Ġpian": 3150,
      "Ġhammer": 3151,
      "Ġbottom": 3152,
      "lph": 3153,
      "Ġcheerful": 3154,
      "Ġusing": 3155,
      "Ġsmoke": 3156,
      "Ġpicks": 3157,
      "Ġmoder": 3158,
      "Ġshows": 3159,
      "berries": 3160,
      "rn": 3161,
      "Ġpiano": 3162,
      "Ġmagnet": 3163,
      "dile": 3164,
      "codile": 3165,
      "Ġhurts": 3166,
      "inary": 3167,
      "Ġref": 3168,
      "Ġcrack": 3169,
      "Ġeng": 3170,
      "Ġaunt": 3171,
      "Ġmelon": 3172,
      "Ġwaff": 3173,
      "Ġmodern": 3174,
      "Ġdolph": 3175,
      "unnel": 3176,
      "cream": 3177,
      "pack": 3178,
      "Ġtunnel": 3179,
      "oin": 3180,
      "Ġarrow": 3181,
      "Ġreliable": 3182,
      "Ġhopping": 3183,
      "Ġmushroom": 3184,
      "Timmy": 3185,
      "Ġjug": 3186,
      "Ġsquash": 3187,
      "Ġgum": 3188,
      "Ġsink": 3189,
      "Ġmovie": 3190,
      "Ġtax": 3191,
      "Ġflute": 3192,
      "Ġbeet": 3193,
      "Ġlean": 3194,
      "Their": 3195,
      "iv": 3196,
      "Ġpopular": 3197,
      "icop": 3198,
      "icopter": 3199,
      "Ġcryst": 3200,
      "Ġones": 3201,
      "Ġsil": 3202,
      "Ġcompetit": 3203,
      "Ġhelicopter": 3204,
      "aser": 3205,
      "Ġneeds": 3206,
      "ipop": 3207,
      "llipop": 3208,
      "Ġcrocodile": 3209,
      "Ġliz": 3210,
      "Molly": 3211,
      "Ġpress": 3212,
      "Ġtroubled": 3213,
      "Ġpige": 3214,
      "Ġlocked": 3215,
      "Ġtricks": 3216,
      "Ġlollipop": 3217,
      "Ġplayful": 3218,
      "Ġhumble": 3219,
      "Ġtaxi": 3220,
      "Ġkissed": 3221,
      "Ġlow": 3222,
      "appy": 3223,
      "comfortable": 3224,
      "amond": 3225,
      "Ġrid": 3226,
      "Ġuncomfortable": 3227,
      "host": 3228,
      "Ġwander": 3229,
      "atch": 3230,
      "Ġangel": 3231,
      "edy": 3232,
      "cles": 3233,
      "Ġtorn": 3234,
      "Ġgrace": 3235,
      "Ġanx": 3236,
      "Ġwrapped": 3237,
      "Ġmuff": 3238,
      "Ġtwig": 3239,
      "Ġpants": 3240,
      "Ġdisappoin": 3241,
      "ĠSn": 3242,
      "Ġhelps": 3243,
      "Ġdiamond": 3244,
      "Ġcamera": 3245,
      "atter": 3246,
      "oto": 3247,
      "Ġanxious": 3248,
      "Ġghost": 3249,
      "Ġtears": 3250,
      "Ġruined": 3251,
      "cident": 3252,
      "ĠJenny": 3253,
      "ilty": 3254,
      "Ġquar": 3255,
      "aff": 3256,
      "ĠEven": 3257,
      "Ġfis": 3258,
      "opl": 3259,
      "Ġbelt": 3260,
      "eropl": 3261,
      "Ġenv": 3262,
      "Ġguilty": 3263,
      "Ġbull": 3264,
      "Ġaeropl": 3265,
      "Ġhelpless": 3266,
      "Ġhappiness": 3267,
      "Ġlizard": 3268,
      "Ġboys": 3269,
      "cut": 3270,
      "ext": 3271,
      "Ġcere": 3272,
      "Ġwalks": 3273,
      "cean": 3274,
      "Ġpassed": 3275,
      "Ġmeant": 3276,
      "Ġocean": 3277,
      "Ġfluffy": 3278,
      "Ġwire": 3279,
      "Ġnail": 3280,
      "Ġbracelet": 3281,
      "Ġdeaf": 3282,
      "zed": 3283,
      "Ġstretch": 3284,
      "Ġcact": 3285,
      "Ġcandle": 3286,
      "tt": 3287,
      "Ġbeetle": 3288,
      "Ġmop": 3289,
      "Ġharmless": 3290,
      "umpet": 3291,
      "Ġordinary": 3292,
      "Ġanswered": 3293,
      "Ġcop": 3294,
      "Ġcollar": 3295,
      "Ġbees": 3296,
      "Ġtire": 3297,
      "Ġshape": 3298,
      "Ġquarrel": 3299,
      "Ġradio": 3300,
      "Ġflashlight": 3301,
      "Ġcrystal": 3302,
      "Ġharder": 3303,
      "Ġpoured": 3304,
      "Ġtrumpet": 3305,
      "Ġengine": 3306,
      "Mama": 3307,
      "Ġpersist": 3308,
      "Ġhunt": 3309,
      "Ġtooth": 3310,
      "Ġcereal": 3311,
      "Ġinvited": 3312,
      "Ġcomput": 3313,
      "Ġtag": 3314,
      "Ġoffice": 3315,
      "Ġmelt": 3316,
      "Ġspill": 3317,
      "Ġcharm": 3318,
      "coa": 3319,
      "Ġlit": 3320,
      "Ġscoot": 3321,
      "Ġcomet": 3322,
      "Ġtriangle": 3323,
      "ief": 3324,
      "Ġmug": 3325,
      "Ġrep": 3326,
      "ube": 3327,
      "Ġyogurt": 3328,
      "Ġspend": 3329,
      "Ġcompass": 3330,
      "Ġaccident": 3331,
      "Ġshade": 3332,
      "hett": 3333,
      "aghett": 3334,
      "aghetti": 3335,
      "Ġdisappointed": 3336,
      "Ġlicked": 3337,
      "Ġcactus": 3338,
      "Ġpale": 3339,
      "Ġcush": 3340,
      "Ġfigure": 3341,
      "Ġgiving": 3342,
      "Ġregular": 3343,
      "Ġavoc": 3344,
      "Ġpro": 3345,
      "Ġsheet": 3346,
      "Ġwhispered": 3347,
      "aze": 3348,
      "uth": 3349,
      "ellig": 3350,
      "Ġcreate": 3351,
      "Ġbarber": 3352,
      "Jane": 3353,
      "Ġintellig": 3354,
      "Ġpipe": 3355,
      "Ġrode": 3356,
      "Ġroof": 3357,
      "Ġthread": 3358,
      "ither": 3359,
      "Ġlibr": 3360,
      "Ġload": 3361,
      "Ġvi": 3362,
      "Ġgifted": 3363,
      "ccol": 3364,
      "Ġpracticed": 3365,
      "Ġdelight": 3366,
      "ccoli": 3367,
      "Ġharsh": 3368,
      "Ġdust": 3369,
      "Ġpow": 3370,
      "asses": 3371,
      "ĠTrue": 3372,
      "Ġbicy": 3373,
      "azz": 3374,
      "Ġspaghetti": 3375,
      "Ġcompassion": 3376,
      "Ġsailed": 3377,
      "urkey": 3378,
      "ubby": 3379,
      "Ġforward": 3380,
      "Ġpersistent": 3381,
      "Ġspeed": 3382,
      "Ġmitten": 3383,
      "Ġcocoa": 3384,
      "Ġenvel": 3385,
      "Ġquestions": 3386,
      "Ġcomputer": 3387,
      "Ġcoo": 3388,
      "Ġfeathers": 3389,
      "hip": 3390,
      "Ġglove": 3391,
      "ging": 3392,
      "Bobo": 3393,
      "Ġrice": 3394,
      "Ġshrimp": 3395,
      "Ġdesk": 3396,
      "Ġstream": 3397,
      "Ġinse": 3398,
      "Ġpigeon": 3399,
      "Ġcharming": 3400,
      "Ġears": 3401,
      "Ġcarp": 3402,
      "lcan": 3403,
      "Ġraft": 3404,
      "Ġenvious": 3405,
      "Ġknot": 3406,
      "Ġturkey": 3407,
      "Ġstronger": 3408,
      "omes": 3409,
      "Ġcoins": 3410,
      "Ġtap": 3411,
      "lcano": 3412,
      "weet": 3413,
      "Ġtrap": 3414,
      "umbers": 3415,
      "Ġaeroplane": 3416,
      "Ġtrunk": 3417,
      "Ġwheat": 3418,
      "Ġboxes": 3419,
      "Ġchubby": 3420,
      "Ġcarpet": 3421,
      "Ġrestless": 3422,
      "Ġintelligent": 3423,
      "Ġtube": 3424,
      "Ġspun": 3425,
      "Ġdreams": 3426,
      "Ġfriendship": 3427,
      "ulif": 3428,
      "olin": 3429,
      "Ġhalf": 3430,
      "Ġloop": 3431,
      "Ġcrawl": 3432,
      "Ġbroccoli": 3433,
      "Ġonion": 3434,
      "Ġdeliver": 3435,
      "anger": 3436,
      "Ġacce": 3437,
      "Ġvide": 3438,
      "Ġvolcano": 3439,
      "ĠJake": 3440,
      "Ġsle": 3441,
      "Ġtrack": 3442,
      "Ġbri": 3443,
      "Ġcaulif": 3444,
      "Ġvine": 3445,
      "ye": 3446,
      "Ġticket": 3447,
      "Ġthief": 3448,
      "essie": 3449,
      "cycle": 3450,
      "Ġlouder": 3451,
      "Ġinsect": 3452,
      "Ġnumbers": 3453,
      "asing": 3454,
      "Ġyaw": 3455,
      "Ġhaircut": 3456,
      "ital": 3457,
      "Ġsleeping": 3458,
      "Ġmill": 3459,
      "Ġeventually": 3460,
      "Ġalert": 3461,
      "Ġexcite": 3462,
      "Ġpebble": 3463,
      "Ġhosp": 3464,
      "Ġattract": 3465,
      "Ġplanet": 3466,
      "ĠToday": 3467,
      "Ġuniver": 3468,
      "isted": 3469,
      "ulu": 3470,
      "Ġeraser": 3471,
      "Ġhospital": 3472,
      "Ġreturned": 3473,
      "Ġdestro": 3474,
      "Ġgraceful": 3475,
      "Ġhappening": 3476,
      "ache": 3477,
      "ĠOK": 3478,
      "Ġdecide": 3479,
      "ĠEmily": 3480,
      "Ġlearning": 3481,
      "Ġscreen": 3482,
      "rework": 3483,
      "Ġnicely": 3484,
      "Ġleop": 3485,
      "Ġcauliflower": 3486,
      "Ġcompetitive": 3487,
      "Ġpoem": 3488,
      "Ġcelebrate": 3489,
      "Ġcurt": 3490,
      "Ġpeach": 3491,
      "Ġsoldier": 3492,
      "Ġsaus": 3493,
      "Ġparade": 3494,
      "atient": 3495,
      "Ġattractive": 3496,
      "Ġcurtain": 3497,
      "Ġbase": 3498,
      "Ġdolphin": 3499,
      "Ġviolin": 3500,
      "Ġways": 3501,
      "Go": 3502,
      "ats": 3503,
      "Ġtravel": 3504,
      "ten": 3505,
      "Ġrod": 3506,
      "Ġignorant": 3507,
      "ulb": 3508,
      "Ġwheels": 3509,
      "Ġyach": 3510,
      "Ġscatter": 3511,
      "Ġdeter": 3512,
      "Ġcompassionate": 3513,
      "Ġbarrel": 3514,
      "Ġenvelope": 3515,
      "Ġbubble": 3516,
      "Ġlying": 3517,
      "Ġfirework": 3518,
      "Ġsort": 3519,
      "Ġquestion": 3520,
      "zzy": 3521,
      "ĠPipp": 3522,
      "Ġscooter": 3523,
      "Ġdeterm": 3524,
      "Ġrag": 3525,
      "Ġthu": 3526,
      "Ġbicycle": 3527,
      "elery": 3528,
      "Ġneedle": 3529,
      "ĠFr": 3530,
      "Ġjudge": 3531,
      "Ġbulb": 3532,
      "Ġleopard": 3533,
      "Ġtem": 3534,
      "Ġyacht": 3535,
      "Ġpony": 3536,
      "Ġcricket": 3537,
      "Ġhomes": 3538,
      "Ġorder": 3539,
      "Ġador": 3540,
      "tern": 3541,
      "Ġtruth": 3542,
      "Ġhook": 3543,
      "dom": 3544,
      "Ġrubbed": 3545,
      "ete": 3546,
      "igator": 3547,
      "Ġbushes": 3548,
      "Sarah": 3549,
      "Ġuncle": 3550,
      "Ġcushion": 3551,
      "Ġspell": 3552,
      "Ġgrown": 3553,
      "Ġcooked": 3554,
      "Ġadorable": 3555,
      "Ġchalk": 3556,
      "Ġsoar": 3557,
      "Ġpurse": 3558,
      "Ġskin": 3559,
      "Ġthemselves": 3560,
      "Ġimpatient": 3561,
      "Ġcelery": 3562,
      "Ġtray": 3563,
      "Ġshells": 3564,
      "Ġpengu": 3565,
      "Ġsniff": 3566,
      "Ġprun": 3567,
      "Ġwalls": 3568,
      "Ġseal": 3569,
      "Ġlively": 3570,
      "Ġcase": 3571,
      "Ġalligator": 3572,
      "Ġdistant": 3573,
      "Ġradish": 3574,
      "Ġsaying": 3575,
      "Ġspeak": 3576,
      "Ġmotorcycle": 3577,
      "Ġmeat": 3578,
      "Ġsend": 3579,
      "illa": 3580,
      "Ġspinning": 3581,
      "Ġforth": 3582,
      "Ġcounting": 3583,
      "Ġenth": 3584,
      "Ġbounced": 3585,
      "Ġchain": 3586,
      "Ġed": 3587,
      "Ġcleaning": 3588,
      "ebra": 3589,
      "Ġfilm": 3590,
      "Ġslept": 3591,
      "Ġpit": 3592,
      "Ġsurf": 3593,
      "Ġmarry": 3594,
      "usia": 3595,
      "Ġwallet": 3596,
      "Ġenthusia": 3597,
      "Ġmetal": 3598,
      "urb": 3599,
      "ebook": 3600,
      "Ġbin": 3601,
      "Ġweek": 3602,
      "Ġnotebook": 3603,
      "Ġskip": 3604,
      "Ġwiped": 3605,
      "ision": 3606,
      "chair": 3607,
      "Ġbiggest": 3608,
      "Ġimpro": 3609,
      "Ġavocado": 3610,
      "Ġbehave": 3611,
      "Ġdestroy": 3612,
      "vator": 3613,
      "Ġbandage": 3614,
      "Ġlaughs": 3615,
      "Ġsteak": 3616,
      "Ġpattern": 3617,
      "ĠSh": 3618,
      "Ġpost": 3619,
      "Ġelevator": 3620,
      "ĠBuzz": 3621,
      "usie": 3622,
      "Ġdive": 3623,
      "Ġshut": 3624,
      "Ġskipped": 3625,
      "Ġunlock": 3626,
      "Ġdiary": 3627,
      "dest": 3628,
      "ject": 3629,
      "Ġzebra": 3630,
      "Ġbags": 3631,
      "ating": 3632,
      "Ġarmchair": 3633,
      "rage": 3634,
      "aged": 3635,
      "Ġdisturb": 3636,
      "Ġoy": 3637,
      "Ġpole": 3638,
      "Ġshowing": 3639,
      "Ġclub": 3640,
      "Ġgathered": 3641,
      "Ġnurse": 3642,
      "bul": 3643,
      "Ġearth": 3644,
      "Ġenc": 3645,
      "Ġstranger": 3646,
      "Ġsweater": 3647,
      "Ġjellyfish": 3648,
      "Ġscrew": 3649,
      "Ġtemp": 3650,
      "ĠPoppy": 3651,
      "Ġcompl": 3652,
      "Ġmixer": 3653,
      "Give": 3654,
      "Ġskull": 3655,
      "Ġlime": 3656,
      "Ġbump": 3657,
      "bulance": 3658,
      "Ġambulance": 3659,
      "nam": 3660,
      "Ġfather": 3661,
      "Gra": 3662,
      "Ġjournal": 3663,
      "Ġloudly": 3664,
      "ito": 3665,
      "Ġfolder": 3666,
      "Ġshield": 3667,
      "ĠLulu": 3668,
      "ĠBet": 3669,
      "Ġlibrary": 3670,
      "Ġbuttons": 3671,
      "ĠPeter": 3672,
      "Ġplayground": 3673,
      "Ġtrucks": 3674,
      "Ġink": 3675,
      "Ġlights": 3676,
      "Ġtummy": 3677,
      "Ġpointing": 3678,
      "Ġcity": 3679,
      "Ġdecorate": 3680,
      "Ġstation": 3681,
      "irit": 3682,
      "Ġprep": 3683,
      "Billy": 3684,
      "Ġfalls": 3685,
      "quito": 3686,
      "ĠPolly": 3687,
      "Ġfu": 3688,
      "ĠFo": 3689,
      "ention": 3690,
      "nger": 3691,
      "ĠBirdy": 3692,
      "lies": 3693,
      "Ġherb": 3694,
      "Ġornam": 3695,
      "Ġornament": 3696,
      "Ġmodest": 3697,
      "Ġguard": 3698,
      "Ġmos": 3699,
      "Ġknows": 3700,
      "Ġcord": 3701,
      "Ġpolish": 3702,
      "Ġmarble": 3703,
      "oby": 3704,
      "Ġmosquito": 3705,
      "umbled": 3706,
      "Ġsalt": 3707,
      "Ġattic": 3708,
      "Ġwhenever": 3709,
      "Ġvest": 3710,
      "ctop": 3711,
      "Ġresc": 3712,
      "Ġyet": 3713,
      "Ġple": 3714,
      "Ġdisappeared": 3715,
      "ceed": 3716,
      "Ġstrawberry": 3717,
      "ĠMum": 3718,
      "Ġkay": 3719,
      "Ġbrothers": 3720,
      "Ġitch": 3721,
      "Ġpirate": 3722,
      "Ġfootball": 3723,
      "Ġsplit": 3724,
      "kele": 3725,
      "Ġonce": 3726,
      "keleton": 3727,
      "Ġhipp": 3728,
      "Ġaut": 3729,
      "Ġled": 3730,
      "uring": 3731,
      "ctopus": 3732,
      "Ġdriving": 3733,
      "Ġcable": 3734,
      "Ġsupport": 3735,
      "Ġcalling": 3736,
      "Ġcupboard": 3737,
      "aky": 3738,
      "ushed": 3739,
      "Ġwishes": 3740,
      "Ġcomplet": 3741,
      "Ġtripped": 3742,
      "Ġroot": 3743,
      "Ġkayak": 3744,
      "Ġoctopus": 3745,
      "obile": 3746,
      "Ġadded": 3747,
      "Ġedge": 3748,
      "Ġmild": 3749,
      "stic": 3750,
      "Ġdetermined": 3751,
      "Ġsucceed": 3752,
      "?\".": 3753,
      "Ġreading": 3754,
      "omobile": 3755,
      "Ġcoal": 3756,
      "Well": 3757,
      "gl": 3758,
      "utes": 3759,
      "par": 3760,
      "Ġsuggest": 3761,
      "Ġstack": 3762,
      "Ġthunder": 3763,
      "Ġkindness": 3764,
      "Ġautomobile": 3765,
      "Ġcomplain": 3766,
      "Ġenthusiastic": 3767,
      "Ġsneeze": 3768,
      "Ġcartoon": 3769,
      "Ġyoga": 3770,
      "Ġgrowl": 3771,
      "htub": 3772,
      "Ġflea": 3773,
      "la": 3774,
      "Ġmeadow": 3775,
      "Ġdrawer": 3776,
      "Ġbathtub": 3777,
      "Ġribb": 3778,
      "ophone": 3779,
      "Ġhall": 3780,
      "Ġgolf": 3781,
      "Ġmeans": 3782,
      "Ġskeleton": 3783,
      "Ġmath": 3784,
      "ĠLittle": 3785,
      "Ġveil": 3786,
      "Ġhunter": 3787,
      "Ġgor": 3788,
      "Ġflame": 3789,
      "Ġpoke": 3790,
      "Ġvideo": 3791,
      "Ġchess": 3792,
      "Ġtroph": 3793,
      "Ġcups": 3794,
      "Ġglowing": 3795,
      "Ġmatt": 3796,
      "Ġoyster": 3797,
      "work": 3798,
      "Ġpenny": 3799,
      "Ġspear": 3800,
      "Ġitself": 3801,
      "Ġdrawings": 3802,
      "Ġhippo": 3803,
      "Ġrepair": 3804,
      "Ġswitch": 3805,
      "glasses": 3806,
      "Ġsunglasses": 3807,
      "Ġteleph": 3808,
      "Ġcostume": 3809,
      "Ġdess": 3810,
      "Ġzipp": 3811,
      ",âĢĿ": 3812,
      "Ġrepe": 3813,
      "Ġmuffin": 3814,
      "Ġarg": 3815,
      "Ġpastry": 3816,
      "Ġpun": 3817,
      "Ġrolling": 3818,
      "Ġminutes": 3819,
      "Ġmakeup": 3820,
      "Ġpacked": 3821,
      "iron": 3822,
      "ric": 3823,
      "ĠPeople": 3824,
      "Ġwaffle": 3825,
      "case": 3826,
      "Ġhandle": 3827,
      "Ġpear": 3828,
      "Ġmaze": 3829,
      "Ġtelephone": 3830,
      "Ġpine": 3831,
      "ait": 3832,
      "Ġgear": 3833,
      "Ġhedge": 3834,
      "Ġmattress": 3835,
      "Ġpackage": 3836,
      "aving": 3837,
      "ĠMiss": 3838,
      "Ġshocked": 3839,
      "ines": 3840,
      "Ġtrophy": 3841,
      "Ġpowder": 3842,
      "Ġknight": 3843,
      "Ġcob": 3844,
      "Ġmissile": 3845,
      "Ġframe": 3846,
      "Ġmanaged": 3847,
      "Ġencou": 3848,
      "Ġwife": 3849,
      "Ġok": 3850,
      "Ġsepar": 3851,
      "web": 3852,
      "Ġstairs": 3853,
      "Ġrot": 3854,
      "Ġcamp": 3855,
      "rophone": 3856,
      "urch": 3857,
      "Ġmagaz": 3858,
      "Ġstrugg": 3859,
      "Ġcolour": 3860,
      "Ġgrapes": 3861,
      "time": 3862,
      "Ġfile": 3863,
      "head": 3864,
      "ĠTina": 3865,
      "Ġbasketball": 3866,
      "Jimmy": 3867,
      "Bye": 3868,
      "old": 3869,
      "per": 3870,
      "Re": 3871,
      "Ġcobweb": 3872,
      "ĠTweet": 3873,
      "See": 3874,
      "Ġperm": 3875,
      "Ġwool": 3876,
      "Ġmicrophone": 3877,
      "ĠDan": 3878,
      "esday": 3879,
      "Ġeye": 3880,
      "Ġleash": 3881,
      "Ġgasp": 3882,
      "iew": 3883,
      "keep": 3884,
      "Ġweep": 3885,
      "Ġbarking": 3886,
      "ature": 3887,
      "Ġsafely": 3888,
      "Ġtear": 3889,
      "Ġview": 3890,
      "ffe": 3891,
      "Ġslides": 3892,
      "Ġsteps": 3893,
      "istol": 3894,
      "ffee": 3895,
      "Ġbananas": 3896,
      "Ġstaff": 3897,
      "Ġspirit": 3898,
      "Ġtask": 3899,
      "Ġgiggled": 3900,
      "Ġhoc": 3901,
      "Ġhockey": 3902,
      "Ġvend": 3903,
      "Ġthose": 3904,
      "Ġgorilla": 3905,
      "Jill": 3906,
      "Ġcooler": 3907,
      "ĠRose": 3908,
      "was": 3909,
      "cing": 3910,
      "Ġearly": 3911,
      "Ġmarched": 3912,
      "rosc": 3913,
      "Ġmint": 3914,
      "ĠLook": 3915,
      "washer": 3916,
      "Ġflour": 3917,
      "Ġhotel": 3918,
      "hic": 3919,
      "Ġsailor": 3920,
      "Ġdessert": 3921,
      "Ġphoto": 3922,
      "roscope": 3923,
      "Ġvehic": 3924,
      "ilot": 3925,
      "Ġoften": 3926,
      "Ġchurch": 3927,
      "ĠPete": 3928,
      "Ġcooking": 3929,
      "Ġremain": 3930,
      "Ġfive": 3931,
      "Ġsausage": 3932,
      "otter": 3933,
      "Ġten": 3934,
      "Ġtools": 3935,
      "Ġmedal": 3936,
      "Ġeither": 3937,
      "Ġfireman": 3938,
      "chor": 3939,
      "Ġgrandpa": 3940,
      "Ġotter": 3941,
      "Ġbaseball": 3942,
      "Ġpistol": 3943,
      "Ġpretending": 3944,
      "Ġdishwasher": 3945,
      "Ġrever": 3946,
      "Ġorganize": 3947,
      "Ġpee": 3948,
      "Ġvendor": 3949,
      "Ġknock": 3950,
      "Ġsight": 3951,
      "Ġgrill": 3952,
      "Ġtemple": 3953,
      "Ġbattery": 3954,
      "Ġthinking": 3955,
      "Ġopens": 3956,
      "Ġow": 3957,
      "Ġrealised": 3958,
      "Ġiron": 3959,
      "Ġlaser": 3960,
      "Ġsne": 3961,
      "Ġoil": 3962,
      "Ġsandbox": 3963,
      "Ġpatch": 3964,
      "Ġhours": 3965,
      "Ġrise": 3966,
      "Ġwhip": 3967,
      "'d": 3968,
      "ctory": 3969,
      "ĠGive": 3970,
      "Ġanchor": 3971,
      "Ġtrash": 3972,
      "ense": 3973,
      "Ġshort": 3974,
      "ney": 3975,
      "ĠBetty": 3976,
      "Ġrhin": 3977,
      "Ġfactory": 3978,
      "seum": 3979,
      "Ġmay": 3980,
      "Ġward": 3981,
      "ately": 3982,
      "Ġcardboard": 3983,
      "ugged": 3984,
      "Ġlotion": 3985,
      "Al": 3986,
      "Ġmessage": 3987,
      "Ġvalu": 3988,
      "Ġwardrobe": 3989,
      "Ġcell": 3990,
      "Ġmuseum": 3991,
      "apers": 3992,
      "Ġur": 3993,
      "ination": 3994,
      "Ġhanging": 3995,
      "ucet": 3996,
      "ĠSunny": 3997,
      "ailable": 3998,
      "ĠZoom": 3999,
      "Ġhive": 4000,
      "eer": 4001,
      "Ġtowers": 4002,
      "keeper": 4003,
      "Ġblackboard": 4004,
      "Ġmem": 4005,
      "Ġexcitement": 4006,
      "Ġcoffee": 4007,
      "Ġpilot": 4008,
      "Fluffy": 4009,
      "ready": 4010,
      "Ġnapkin": 4011,
      "Ġpenguin": 4012,
      "ron": 4013,
      "Ġcheck": 4014,
      "Ġreward": 4015,
      "loo": 4016,
      "Ġquit": 4017,
      "ĠPippin": 4018,
      "Ġcane": 4019,
      "Ġpicking": 4020,
      "place": 4021,
      "ĠSnow": 4022,
      "azor": 4023,
      "Ġig": 4024,
      "Ġfaucet": 4025,
      "Ġpassport": 4026,
      "ĠRob": 4027,
      "Ġstumbled": 4028,
      "Ġdreamed": 4029,
      "ĠBessie": 4030,
      "Ġigloo": 4031,
      "aroo": 4032,
      "angaroo": 4033,
      "Ġfreez": 4034,
      "Ġjuicy": 4035,
      "Ġallowed": 4036,
      "play": 4037,
      "Ġholds": 4038,
      "Ġalready": 4039,
      "Ġavailable": 4040,
      "Ġsett": 4041,
      "Ġbathe": 4042,
      "Ġtornado": 4043,
      "imney": 4044,
      "Ġfingers": 4045,
      "htray": 4046,
      "Ġhanger": 4047,
      "Ġnewsp": 4048,
      "Ġsize": 4049,
      "Ġlaund": 4050,
      "Ġlend": 4051,
      "Ġchimney": 4052,
      "Ġlaundry": 4053,
      "Ġoak": 4054,
      "Ġfisher": 4055,
      "Ġkangaroo": 4056,
      "Ġmen": 4057,
      "ĠEverywhere": 4058,
      "Ġtelling": 4059,
      "Em": 4060,
      "Ġnovel": 4061,
      "body": 4062,
      "Ġmummy": 4063,
      "Ġpal": 4064,
      "Ġmule": 4065,
      "Ġcherries": 4066,
      "Ġnotice": 4067,
      "Ġpractice": 4068,
      "Ġspilled": 4069,
      "Ġreind": 4070,
      "Ġcomplete": 4071,
      "Ġenjoying": 4072,
      "Ġmicroscope": 4073,
      "arian": 4074,
      "Ġgain": 4075,
      "ampoo": 4076,
      "Ġsub": 4077,
      "Ġfireplace": 4078,
      "Ġimagine": 4079,
      "anda": 4080,
      "Ġdisplay": 4081,
      "ocer": 4082,
      "ĠZip": 4083,
      "Ġfastest": 4084,
      "Ġmagazine": 4085,
      "Ġhurry": 4086,
      "Ġcabinet": 4087,
      "Ġshrink": 4088,
      "Joe": 4089,
      "Ġashtray": 4090,
      "Wait": 4091,
      "Ġcows": 4092,
      "ĠSpike": 4093,
      "gen": 4094,
      "Ġpalace": 4095,
      "Ġimprove": 4096,
      "aches": 4097,
      "Ġrake": 4098,
      "Ġreindeer": 4099,
      "Ġfalling": 4100,
      "oceros": 4101,
      "Ġskirt": 4102,
      "ured": 4103,
      "Ġdiscovered": 4104,
      "Ġstared": 4105,
      "Ġroared": 4106,
      "aid": 4107,
      "Ġsilver": 4108,
      "Ġtub": 4109,
      "Ġtrail": 4110,
      "Is": 4111,
      "Ġminer": 4112,
      "come": 4113,
      "Ġbill": 4114,
      "Ġfog": 4115,
      "iction": 4116,
      "Ġax": 4117,
      "stairs": 4118,
      "Ġhut": 4119,
      "ilet": 4120,
      "Ġhappier": 4121,
      "Ġtaller": 4122,
      "ictionary": 4123,
      "Ġoats": 4124,
      "Ġfisherman": 4125,
      "Ġobject": 4126,
      "Ġpor": 4127,
      "vision": 4128,
      "Ġvaluable": 4129,
      "Ġshampoo": 4130,
      "Ġholes": 4131,
      "Ġoffered": 4132,
      "Ġboots": 4133,
      "Ġrhinoceros": 4134,
      "Ġnames": 4135,
      "Ġtoilet": 4136,
      "Ġclimbing": 4137,
      "Ġblin": 4138,
      "vice": 4139,
      "Ow": 4140,
      "Ġstretched": 4141,
      "iest": 4142,
      "Ġzipper": 4143,
      "Ġlistening": 4144,
      "Ġsym": 4145,
      "Ġbathrobe": 4146,
      "alend": 4147,
      "Ġjewelry": 4148,
      "ĠHere": 4149,
      "Ġjokes": 4150,
      "Ġtelevision": 4151,
      "Ġprov": 4152,
      "Ġcalend": 4153,
      "Ġstops": 4154,
      "Ġaxe": 4155,
      "Ġjumps": 4156,
      "Ġfuel": 4157,
      "cu": 4158,
      "Ġsparkly": 4159,
      "Ġperfume": 4160,
      "ĠSusie": 4161,
      "Ġbury": 4162,
      "bol": 4163,
      "Mummy": 4164,
      "lu": 4165,
      "Ġpressed": 4166,
      "ĠKim": 4167,
      "reek": 4168,
      "Ġrece": 4169,
      "fa": 4170,
      "Ġneat": 4171,
      "ĠToby": 4172,
      "Ġcreek": 4173,
      "Ġpopped": 4174,
      "Ġopera": 4175,
      "Ġcalendar": 4176,
      "Ġsnap": 4177,
      "Ġattach": 4178,
      "Ġgasped": 4179,
      "Ġsymbol": 4180,
      "Ġtuna": 4181,
      "Mr": 4182,
      "ĠMar": 4183,
      "Ġpapers": 4184,
      "Ġunpack": 4185,
      "Ġresist": 4186,
      "Ġdictionary": 4187,
      "Ġsubway": 4188,
      "Ġletters": 4189,
      "Ġfreezer": 4190,
      "Ġchose": 4191,
      "Ġpinch": 4192,
      "zag": 4193,
      "Ġspoke": 4194,
      "Ġanyway": 4195,
      "Ġsuper": 4196,
      "Ġhelper": 4197,
      "Ġporch": 4198,
      "affe": 4199,
      "Ġbikes": 4200,
      "Ġlie": 4201,
      "arry": 4202,
      "iches": 4203,
      "Ġcomfort": 4204,
      "Ġtightly": 4205,
      "Ġshaking": 4206,
      "Ġbookcase": 4207,
      "Ġson": 4208,
      "Ġrazor": 4209,
      "aurant": 4210,
      "ĠAre": 4211,
      "Ġsandwiches": 4212,
      "igzag": 4213,
      "Ġweigh": 4214,
      "Ġagainst": 4215,
      "Ġstickers": 4216,
      "Ġrestaurant": 4217,
      "Ġnewspaper": 4218,
      "Ġblouse": 4219,
      "Ġvehicle": 4220,
      "Ġswinging": 4221,
      "Ġped": 4222,
      "Ġdisag": 4223,
      "Ġnature": 4224,
      "Ġsquirrels": 4225,
      "Ġbelongs": 4226,
      "ival": 4227,
      "Ġswamp": 4228,
      "Ġbutterflies": 4229,
      "Ġgym": 4230,
      "del": 4231,
      "Ġinclu": 4232,
      "Ġgrowing": 4233,
      "Ġbuckle": 4234,
      "omed": 4235,
      "Ġstirred": 4236,
      "Ġmustache": 4237,
      "Ġbillboard": 4238,
      "xy": 4239,
      "Ġbeep": 4240,
      "te": 4241,
      "Ġalarm": 4242,
      "Ġlip": 4243,
      "Ġfest": 4244,
      "Ġlightning": 4245,
      "Little": 4246,
      "Ġhung": 4247,
      "utor": 4248,
      "Ġdistance": 4249,
      "ogn": 4250,
      "Ġcards": 4251,
      "Ġobser": 4252,
      "Ġagree": 4253,
      "Ġext": 4254,
      "Ġtease": 4255,
      "Ġrecogn": 4256,
      "Ġrubber": 4257,
      "ik": 4258,
      "Ġhate": 4259,
      "fast": 4260,
      "ef": 4261,
      "Ouch": 4262,
      "Ġdoesn": 4263,
      "Ġmusician": 4264,
      "Ġadvice": 4265,
      "Ġbeef": 4266,
      "Ġserve": 4267,
      "aspoon": 4268,
      "Ġsweetie": 4269,
      "Ġmodel": 4270,
      "lter": 4271,
      "Ġblueberries": 4272,
      "Ġcrib": 4273,
      "Ġsofa": 4274,
      "Ġcircles": 4275,
      "Ġbreakfast": 4276,
      "Ġtutor": 4277,
      "asis": 4278,
      "Ġbookshe": 4279,
      "Ġgiraffe": 4280,
      "stri": 4281,
      "Ġfestival": 4282,
      "Ġseparate": 4283,
      "Ġshelter": 4284,
      "Ġgas": 4285,
      "Ġairport": 4286,
      "Ġolive": 4287,
      "Ġrail": 4288,
      "Ġbookshelf": 4289,
      "Ġfrogs": 4290,
      "Ġteaspoon": 4291,
      "Ġreverse": 4292,
      "Ġjunk": 4293,
      "Ġriding": 4294,
      "Ġpleased": 4295,
      "Ġdrain": 4296,
      "ĠMrs": 4297,
      "Ġwipe": 4298,
      "Ġoasis": 4299,
      "Ġsoil": 4300,
      "Ġahead": 4301,
      "Ġrescue": 4302,
      "Ġleaving": 4303,
      "ummer": 4304,
      "Ġpainter": 4305,
      "Ġchance": 4306,
      "Ġsqueeze": 4307,
      "Ġknob": 4308,
      "Ġpoked": 4309,
      "ĠTeddy": 4310,
      "Ġpeeked": 4311,
      "Ġlumber": 4312,
      "Ġtrains": 4313,
      "Ġextra": 4314,
      "Ġslipp": 4315,
      "Ġquiz": 4316,
      "Ġrefused": 4317,
      "res": 4318,
      "rmomet": 4319,
      "Ġpage": 4320,
      "Ġrules": 4321,
      "Ġhappens": 4322,
      "Ġins": 4323,
      "Ġsounded": 4324,
      "Ġpoint": 4325,
      "Ġwinter": 4326,
      "Ġdancer": 4327,
      "Ġbirdc": 4328,
      "ĠGrandpa": 4329,
      "Ġdisappear": 4330,
      "rmometer": 4331,
      "ĠDolly": 4332,
      "Ġwaste": 4333,
      "Ġweather": 4334,
      "Ġlic": 4335,
      "Ġbirdcage": 4336,
      "Ġtheater": 4337,
      "Ġreef": 4338,
      "Ġcarrying": 4339,
      "Daisy": 4340,
      "Ġinvite": 4341,
      "iform": 4342,
      "Ġgoal": 4343,
      "Ġostri": 4344,
      "Ġswung": 4345,
      "Ġuniform": 4346,
      "Ġtrade": 4347,
      "Ġcliff": 4348,
      "ience": 4349,
      "Ġlawn": 4350,
      "ĠPandy": 4351,
      "ola": 4352,
      "Ġleaned": 4353,
      "angu": 4354,
      "Ġaccept": 4355,
      "Ġadmire": 4356,
      "Ġfort": 4357,
      "Ġaccidentally": 4358,
      "Ġpastel": 4359,
      "bbles": 4360,
      "Ġstom": 4361,
      "Ġlangu": 4362,
      "Ġtwir": 4363,
      "Ġsuff": 4364,
      "Ġpanda": 4365,
      "riger": 4366,
      "Ġbet": 4367,
      "rigerator": 4368,
      "Ġpeek": 4369,
      "render": 4370,
      "Ġblinked": 4371,
      "Ġstarts": 4372,
      "na": 4373,
      "Ġrefrigerator": 4374,
      "Ġanywhere": 4375,
      "!\".": 4376,
      "Ġimagined": 4377,
      "Ġdreaming": 4378,
      "Ġremove": 4379,
      "night": 4380,
      "ĠLee": 4381,
      "Ġshower": 4382,
      "ĠCo": 4383,
      "Ġceiling": 4384,
      "Ġclassroom": 4385,
      "Ġcaring": 4386,
      "ium": 4387,
      "Ġgrand": 4388,
      "Ġmissing": 4389,
      "aked": 4390,
      "Ġlicense": 4391,
      "Ġstable": 4392,
      "Ġthermometer": 4393,
      "Ġmonkeys": 4394,
      "astic": 4395,
      "Ġwarned": 4396,
      "Ġsummer": 4397,
      "ĠWhere": 4398,
      "Ġabove": 4399,
      "Ġbrick": 4400,
      "ected": 4401,
      "Ġcudd": 4402,
      "Ġproblems": 4403,
      "amber": 4404,
      "Ġchasing": 4405,
      "Ġapron": 4406,
      "Ġlabel": 4407,
      "Ġsent": 4408,
      "iture": 4409,
      "urniture": 4410,
      "Ġlawy": 4411,
      "Ġlid": 4412,
      "uggage": 4413,
      "med": 4414,
      "Ġrespectful": 4415,
      "Ġfurniture": 4416,
      "Ġfrowned": 4417,
      "Ġzoomed": 4418,
      "Ġpages": 4419,
      "Ġprevent": 4420,
      "Ġbent": 4421,
      "Ġluggage": 4422,
      "Ġmistakes": 4423,
      "Ġsunset": 4424,
      "Ġostrich": 4425,
      "ison": 4426,
      "Ġsuggested": 4427,
      "Ġwindows": 4428,
      "ations": 4429,
      "Ġjail": 4430,
      "low": 4431,
      "Ġwine": 4432,
      "Ġribbon": 4433,
      "Ġolder": 4434,
      "Ġshouts": 4435,
      "Ġgrape": 4436,
      "ĠCl": 4437,
      "Ġwigg": 4438,
      "ucture": 4439,
      "Ġstructure": 4440,
      "Ġspoil": 4441,
      "eor": 4442,
      "Ġfixing": 4443,
      "Ġchamber": 4444,
      "Ġlions": 4445,
      "Ġdelay": 4446,
      "Ġfinds": 4447,
      "Ġhanded": 4448,
      "Ġsearching": 4449,
      "Ġunite": 4450,
      "Did": 4451,
      "Ġfought": 4452,
      "Ġlawyer": 4453,
      "Ġbrightly": 4454,
      "Ġpair": 4455,
      "Ġmeeting": 4456,
      "Ġchoice": 4457,
      "Ġsurprises": 4458,
      "ĠEllie": 4459,
      "Ġart": 4460,
      "Ch": 4461,
      "ĠUn": 4462,
      "Ġfavour": 4463,
      "eterin": 4464,
      "adium": 4465,
      "eterinarian": 4466,
      "Ġstadium": 4467,
      "Ġproudly": 4468,
      "iki": 4469,
      "Ġveterinarian": 4470,
      "vet": 4471,
      "rod": 4472,
      "Ġchairs": 4473,
      "Ġslip": 4474,
      "ĠSpe": 4475,
      "Ġsadly": 4476,
      "ĠBow": 4477,
      "Ġincre": 4478,
      "ĠCarl": 4479,
      "Ġpuddles": 4480,
      "Ġberry": 4481,
      "Ġintrod": 4482,
      "Ġranch": 4483,
      "veal": 4484,
      "ĠBoun": 4485,
      "Ġargue": 4486,
      "ĠV": 4487,
      "Ġadmired": 4488,
      "Ġcur": 4489,
      "Ġfavourite": 4490,
      "Your": 4491,
      "Ġinf": 4492,
      "Ġexcitedly": 4493,
      "Ġrac": 4494,
      "Ġgrabs": 4495,
      "mend": 4496,
      "Ġsteam": 4497,
      "thank": 4498,
      "Ġhuman": 4499,
      "eorge": 4500,
      "sity": 4501,
      "ĠHel": 4502,
      "Ġpushing": 4503,
      "Ġsaving": 4504,
      "ĠRed": 4505,
      "Ġreveal": 4506,
      "ommend": 4507,
      "Ġyield": 4508,
      "alley": 4509,
      "olog": 4510,
      "Ġmall": 4511,
      "Ġreminded": 4512,
      "Ġrecommend": 4513,
      "Ġleak": 4514,
      "Ġsurrender": 4515,
      "Ġharb": 4516,
      "Ġappl": 4517,
      "cuss": 4518,
      "aul": 4519,
      "Ġweap": 4520,
      "Ġregret": 4521,
      "Ġputting": 4522,
      "Ġvalley": 4523,
      "Ġmineral": 4524,
      "Ġevening": 4525,
      "elcome": 4526,
      "Ġforgave": 4527,
      "Ġmatches": 4528,
      "Ġsneezed": 4529,
      "Ġaw": 4530,
      "Ġpup": 4531,
      "Ġrushed": 4532,
      "ecause": 4533,
      "Ġspade": 4534,
      "Ġapolog": 4535,
      "Ġplates": 4536,
      "Ġdiscuss": 4537,
      "Ġprepare": 4538,
      "Ġharbor": 4539,
      "Ġignore": 4540,
      "ĠBig": 4541,
      "Ġcountry": 4542,
      "Ġlanguage": 4543,
      "ĠBuzzy": 4544,
      "Ġpulls": 4545,
      "Ġplastic": 4546,
      "Ġsupply": 4547,
      "Ġfloat": 4548,
      "Ġsniffed": 4549,
      "ĠJazz": 4550,
      "Ġreplace": 4551,
      "Ġmeas": 4552,
      "Ġshovel": 4553,
      "Ġraise": 4554,
      "ĠBill": 4555,
      "ĠNext": 4556,
      "Ġfre": 4557,
      "Ġcared": 4558,
      "Ġsocks": 4559,
      "Ġstrip": 4560,
      "Ġdoors": 4561,
      "Ġmystery": 4562,
      "Ġlives": 4563,
      "Ġrestore": 4564,
      "Ġsticker": 4565,
      "Ġsudden": 4566,
      "ari": 4567,
      "Ġkinds": 4568,
      "Ġslippery": 4569,
      "ero": 4570,
      "ĠOw": 4571,
      "Ġplayer": 4572,
      "Ġpanic": 4573,
      "Ġhoping": 4574,
      "ricane": 4575,
      "iday": 4576,
      "Ġshone": 4577,
      "lex": 4578,
      "hero": 4579,
      "Ġbeg": 4580,
      "ĠBinky": 4581,
      "ĠMike": 4582,
      "Ġsuperhero": 4583,
      "Ġdelighted": 4584,
      "Ġgro": 4585,
      "Yay": 4586,
      "aud": 4587,
      "chan": 4588,
      "Ġchickens": 4589,
      "Ġshoulder": 4590,
      "Ġrained": 4591,
      "Ġcolourful": 4592,
      "Ġbreat": 4593,
      "ĠAlice": 4594,
      "Ġclaw": 4595,
      "ĠBubbles": 4596,
      "Yuck": 4597,
      "Ġsoftly": 4598,
      "rise": 4599,
      "Ġport": 4600,
      "Grandma": 4601,
      "Ġhol": 4602,
      "icer": 4603,
      "Ġholiday": 4604,
      "Mary": 4605,
      "ĠâĢ": 4606,
      "Ġbarks": 4607,
      "ason": 4608,
      "Ġthrowing": 4609,
      "Ġplanes": 4610,
      "Ġbend": 4611,
      "ĠFreddy": 4612,
      "Ġshakes": 4613,
      "Ġended": 4614,
      "Ġinfant": 4615,
      "Ġshivering": 4616,
      "Ġkneel": 4617,
      "Ġsunrise": 4618,
      "Ġpushes": 4619,
      "ĠOlive": 4620,
      "Ġthanks": 4621,
      "Ġfresh": 4622,
      "Ġsuffer": 4623,
      "Ġpoints": 4624,
      "imed": 4625,
      "wards": 4626,
      "Ġtip": 4627,
      "ĠPat": 4628,
      "ĠSpeedy": 4629,
      "Ġfreeze": 4630,
      "Ġkeeping": 4631,
      "ĠWould": 4632,
      "Ġcopper": 4633,
      "Ġgiggle": 4634,
      "Ġsmells": 4635,
      "Ġdear": 4636,
      "Ġenter": 4637,
      "Ġprovide": 4638,
      "cast": 4639,
      "chanic": 4640,
      "Ġdishes": 4641,
      "ĠEnd": 4642,
      "cond": 4643,
      "Ġunh": 4644,
      "Next": 4645,
      "Ġapplaud": 4646,
      "Ġheads": 4647,
      "Ġhurricane": 4648,
      "Ġcherry": 4649,
      "Ġmass": 4650,
      "Ġthumb": 4651,
      "Ġmeowed": 4652,
      "Ġmenu": 4653,
      "Ġsecond": 4654,
      "Ġbrighter": 4655,
      "ince": 4656,
      "Ġsandcast": 4657,
      "Ġmechanic": 4658,
      "Ġwre": 4659,
      "Ġsprayed": 4660,
      "Ġevent": 4661,
      "Ġletting": 4662,
      "Ġweapon": 4663,
      "Ġlaught": 4664,
      "Ġx": 4665,
      "Ġlaughter": 4666,
      "Ġclapping": 4667,
      "Ġfeelings": 4668,
      "Will": 4669,
      "icky": 4670,
      "Ġsplashing": 4671,
      "ement": 4672,
      "ĠOr": 4673,
      "acked": 4674,
      "Ġcastles": 4675,
      "ĠFl": 4676,
      "cer": 4677,
      "Ġscore": 4678,
      "apping": 4679,
      "Ġuniverse": 4680,
      "Ġnavy": 4681,
      "Ġdem": 4682,
      "Ġsticky": 4683,
      "ophie": 4684,
      "Ġrow": 4685,
      "Ġrooms": 4686,
      "Ġflies": 4687,
      "igi": 4688,
      "ĠDave": 4689,
      "Ġunhappy": 4690,
      "Ġgreedy": 4691,
      "Ġdare": 4692,
      "Ġalive": 4693,
      "Ġbreaks": 4694,
      "Ġener": 4695,
      "Ġcourage": 4696,
      "Ġinvit": 4697,
      "Ready": 4698,
      "Ġrepeat": 4699,
      "Ġdemand": 4700,
      "Lisa": 4701,
      "Ġtrusted": 4702,
      "Ġsomewhere": 4703,
      "arlie": 4704,
      "Ġprune": 4705,
      "bles": 4706,
      "Ġwreck": 4707,
      "Ġskill": 4708,
      "ĠY": 4709,
      "Ġexamine": 4710,
      "Ġparts": 4711,
      "year": 4712,
      "Ġeaten": 4713,
      "All": 4714,
      "oe": 4715,
      "erc": 4716,
      "enry": 4717,
      "Ġmention": 4718,
      "Ġraining": 4719,
      "ĠHelp": 4720,
      "Buddy": 4721,
      "Ġthrows": 4722,
      "Ġjogged": 4723,
      "quest": 4724,
      "Ġstarting": 4725,
      "Ġrush": 4726,
      "Ġpoison": 4727,
      "Ġpirates": 4728,
      "heart": 4729,
      "Ġvac": 4730,
      "Ġcontent": 4731,
      "Emma": 4732,
      "ĠKiki": 4733,
      "Ġsigh": 4734,
      "Ġflapped": 4735,
      "Ġdrops": 4736,
      "Ġchirp": 4737,
      "Ġsport": 4738,
      "Qu": 4739,
      "Ġsparkled": 4740,
      "ĠZoomy": 4741,
      "Ġgiven": 4742,
      "Ġstreng": 4743,
      "Ġsteel": 4744,
      "Ann": 4745,
      "Ġbumped": 4746,
      "Ġyawned": 4747,
      "Ġstud": 4748,
      "Ġrequest": 4749,
      "Ġscold": 4750,
      "Ġmyself": 4751,
      "Ġstrength": 4752,
      "Ġshrugged": 4753,
      "Mark": 4754,
      "Ġcoats": 4755,
      "Ġpunish": 4756,
      "Ġequ": 4757,
      "Ġsnugg": 4758,
      "Ġuniversity": 4759,
      "Ġpaid": 4760,
      "Ġpigs": 4761,
      "ĠJohnny": 4762,
      "Ġscratch": 4763,
      "Ġtoe": 4764,
      "Ġexerc": 4765,
      "Ġtracks": 4766,
      "Ġupstairs": 4767,
      "Ġprayed": 4768,
      "Ġcrossed": 4769,
      "Ġsqueezed": 4770,
      "Ġflood": 4771,
      "Ġimpressed": 4772,
      "Ġbouncing": 4773,
      "ĠRu": 4774,
      "Alice": 4775,
      "Ġrabbits": 4776,
      "ges": 4777,
      "Ġbadly": 4778,
      "..": 4779,
      "Ġleather": 4780,
      "Ġwarn": 4781,
      "Ġexpect": 4782,
      "Ġnews": 4783,
      "Ġtide": 4784,
      "ĠTed": 4785,
      "Ġminute": 4786,
      "Ġbears": 4787,
      "Ġclaws": 4788,
      "Ġbuzz": 4789,
      "Ġsweetheart": 4790,
      "ĠSm": 4791,
      "yth": 4792,
      "Ġnation": 4793,
      "Sh": 4794,
      "ythm": 4795,
      "Ġhist": 4796,
      "Ġvacation": 4797,
      "Ġheat": 4798,
      "Ġstrawberries": 4799,
      "Ġobserve": 4800,
      "Ġexplored": 4801,
      "Ġsettle": 4802,
      "Ġsandcastle": 4803,
      "Ġyawn": 4804,
      "Ġhistory": 4805,
      "mare": 4806,
      "ĠLilly": 4807,
      "ĠLola": 4808,
      "ĠMummy": 4809,
      "ĠSque": 4810,
      "ially": 4811,
      "inking": 4812,
      "Ġbelieved": 4813,
      "Ġhorses": 4814,
      "Daddy": 4815,
      "ĠHoppy": 4816,
      "Ġchecked": 4817,
      "ĠMandy": 4818,
      "Ġtour": 4819,
      "Ġnetwork": 4820,
      "Ġcheek": 4821,
      "ĠUnder": 4822,
      "Ġoffer": 4823,
      "Ġeasily": 4824,
      "Ġplaced": 4825,
      "spec": 4826,
      "Ġspots": 4827,
      "Ġsnowball": 4828,
      "ween": 4829,
      "men": 4830,
      "Ġenergy": 4831,
      "ĠBee": 4832,
      "Ġimagination": 4833,
      "Ġblueberry": 4834,
      "otten": 4835,
      "Ġbetween": 4836,
      "specially": 4837,
      "ĠGigi": 4838,
      "izes": 4839,
      "Ġdaisy": 4840,
      "Ġwaving": 4841,
      "reeze": 4842,
      "reat": 4843,
      "Ġvroom": 4844,
      "Ġsoak": 4845,
      "Ġsafari": 4846,
      "Ġrhythm": 4847,
      "Ġmassage": 4848,
      "Ġstomach": 4849,
      "Ġbaking": 4850,
      "quake": 4851,
      "Ġnightmare": 4852,
      "Ġinsisted": 4853,
      "Ġblowing": 4854,
      "Ġentered": 4855,
      "Before": 4856,
      "Ġstair": 4857,
      "Ġpalm": 4858,
      "Ġbeauty": 4859,
      "Ġtwisted": 4860,
      "Ġbother": 4861,
      "Ġwriting": 4862,
      "Ġscoop": 4863,
      "Ġprunes": 4864,
      "Ġbrain": 4865,
      "Ġing": 4866,
      "ipment": 4867,
      "Ġpoppy": 4868,
      "Ġhills": 4869,
      "noon": 4870,
      "Ġafternoon": 4871,
      "Ġespecially": 4872,
      "Ġequipment": 4873,
      "hest": 4874,
      "Ġsir": 4875,
      "Ġpad": 4876,
      "ĠSee": 4877,
      "Ġingred": 4878,
      "Ġcalls": 4879,
      "ĠFox": 4880,
      "Ġingredient": 4881,
      "Ġearthquake": 4882,
      "Ġignored": 4883,
      "ĠSnowy": 4884,
      "Ġburned": 4885,
      "Ġnobody": 4886,
      "mble": 4887,
      "Ġsty": 4888,
      "apa": 4889,
      "Ġsew": 4890,
      "Ġtug": 4891,
      "isty": 4892,
      "Ġhearts": 4893,
      "xygen": 4894,
      "Ġlear": 4895,
      "Ġlearnt": 4896,
      "Ġlemonade": 4897,
      "Ġincrease": 4898,
      "Jenny": 4899,
      "illie": 4900,
      "Ġgaz": 4901,
      "Ġbackpack": 4902,
      "Ġmailman": 4903,
      "Ġwhistled": 4904,
      "Ġpedal": 4905,
      "ĠSk": 4906,
      "Fred": 4907,
      "Ġshopkeeper": 4908,
      "ffic": 4909,
      "Ġpermit": 4910,
      "Ġtremble": 4911,
      "Ġyucky": 4912,
      "anges": 4913,
      "Ġmoves": 4914,
      "Ġintroduce": 4915,
      "Ġlemons": 4916,
      "Ġcrash": 4917,
      "Ġbeans": 4918,
      "Ġfloated": 4919,
      "edn": 4920,
      "ednesday": 4921,
      "ittens": 4922,
      "Welcome": 4923,
      "Ġplanned": 4924,
      "Ġstrike": 4925,
      "Ġtraffic": 4926,
      "Ġinclude": 4927,
      "Ġslap": 4928,
      "ĠLucky": 4929,
      "Ġracing": 4930,
      "resses": 4931,
      "Ġwisdom": 4932,
      "Ġpur": 4933,
      "Ġwags": 4934,
      "ĠFinny": 4935,
      "laimed": 4936,
      "Ġluck": 4937,
      "ĠGeorge": 4938,
      "Ġfollowing": 4939,
      "Ġprice": 4940,
      "ecting": 4941,
      "Ġmama": 4942,
      "Ġpitch": 4943,
      "Ġbelow": 4944,
      "ĠElly": 4945,
      "ĠHave": 4946,
      "Le": 4947,
      "Ġweight": 4948,
      "Ġexclaimed": 4949,
      "house": 4950,
      "Ġburied": 4951,
      "Ġcomf": 4952,
      "Ġfollows": 4953,
      "Ġrecognize": 4954,
      "Ġingredients": 4955,
      "Ġfurt": 4956,
      "tain": 4957,
      "Ġcandles": 4958,
      "Mimi": 4959,
      "Ġmarbles": 4960,
      "riage": 4961,
      "unday": 4962,
      "emember": 4963,
      "eration": 4964,
      "ĠAlex": 4965,
      "ĠWednesday": 4966,
      "Ġapart": 4967,
      "Ġgrowled": 4968,
      "uct": 4969,
      "ores": 4970,
      "ĊĠ": 4971,
      "ĠSu": 4972,
      "Ġconf": 4973,
      "Ġhopes": 4974,
      "Ġteaching": 4975,
      "Ġfolded": 4976,
      "Ġclosely": 4977,
      "ĠFinn": 4978,
      "ĠWho": 4979,
      "Ġheel": 4980,
      "ĠSunday": 4981,
      "Ġencourage": 4982,
      "ĠOwl": 4983,
      "ĠPaul": 4984,
      "Ġzigzag": 4985,
      "Ġpulling": 4986,
      "Ġdigg": 4987,
      "Ġbouncy": 4988,
      "Ġfurther": 4989,
      "Ġchewed": 4990,
      "Ġdigging": 4991,
      "Ġwinning": 4992,
      "With": 4993,
      "Woof": 4994,
      "Ġdresses": 4995,
      "Ġimage": 4996,
      "rec": 4997,
      "cery": 4998,
      "Ġshouting": 4999,
      "Ġgrocery": 5000,
      "Ġtwisty": 5001,
      "Ġpeanuts": 5002,
      "Ġpuzzles": 5003,
      "bbing": 5004,
      "ĠDog": 5005,
      "look": 5006,
      "Ġscrat": 5007,
      "Ġchores": 5008,
      "Ġwhisper": 5009,
      "ĠIs": 5010,
      "Ġspike": 5011,
      "ĠFroggy": 5012,
      "Ġcape": 5013,
      "Ġsnail": 5014,
      "Ġacorns": 5015,
      "Ġworms": 5016,
      "hood": 5017,
      "Ġdeeper": 5018,
      "Ġurge": 5019,
      "ifi": 5020,
      "Ġexper": 5021,
      "ĠWhenever": 5022,
      "ĠTilly": 5023,
      "ĠSqueaky": 5024,
      "ĠGrace": 5025,
      "Ġplanted": 5026,
      "Ġattention": 5027,
      "ecture": 5028,
      "Ġexercise": 5029,
      "ĠDanny": 5030,
      "Ġcub": 5031,
      "Ġoperation": 5032,
      "Ġunderground": 5033,
      "Ġhon": 5034,
      "Ġagre": 5035,
      "Ġquite": 5036,
      "Ġcreatures": 5037,
      "Ġsimp": 5038,
      "Everyone": 5039,
      "Ġstruggle": 5040,
      "oral": 5041,
      "ĠMittens": 5042,
      "ddy": 5043,
      "Ġblood": 5044,
      "Ġlecture": 5045,
      "Ġwashing": 5046,
      "Ġhurting": 5047,
      "Ġgifts": 5048,
      "Ġvanished": 5049,
      "Ġdressed": 5050,
      "Ġinvitation": 5051,
      "Ġsolved": 5052,
      "Ġlicks": 5053,
      "ĠSharing": 5054,
      "Ġsnuggled": 5055,
      "ippy": 5056,
      "Ġble": 5057,
      "Ġmarriage": 5058,
      "Ġquietly": 5059,
      "gie": 5060,
      "Ġwarning": 5061,
      "Ġjazz": 5062,
      "Ġbreathe": 5063,
      "reci": 5064,
      "Ġelephants": 5065,
      "Ġsizes": 5066,
      "Ġdried": 5067,
      "Ġfallen": 5068,
      "Ġlandscape": 5069,
      "ories": 5070,
      "Ġsprink": 5071,
      "Ġneighbour": 5072,
      "Ġmice": 5073,
      "uesday": 5074,
      "Ġappreci": 5075,
      "ĠSophie": 5076,
      "ĠJoey": 5077,
      "ĠâĢĵ": 5078,
      "Ġeagerly": 5079,
      "Ġsailing": 5080,
      "ĠCoco": 5081,
      "Ġpaused": 5082,
      "ips": 5083,
      "Ġcounter": 5084,
      "ĠGood": 5085,
      "ĠBounce": 5086,
      "ĠPenny": 5087,
      "Ġworth": 5088,
      "looking": 5089,
      "ĠRock": 5090,
      "Ġoxygen": 5091,
      "Because": 5092,
      "Ġrelease": 5093,
      "Ġshined": 5094,
      "Not": 5095,
      "pted": 5096,
      "Ġreaches": 5097,
      "Ġbalan": 5098,
      "ĠZara": 5099,
      "isses": 5100,
      "Ġoh": 5101,
      "Ġkisses": 5102,
      "Ġstyle": 5103,
      "Ġbricks": 5104,
      "Ġplays": 5105,
      "Ġglo": 5106,
      "ĠTuesday": 5107,
      "Ġideas": 5108,
      "sed": 5109,
      "Ġinst": 5110,
      "Ġwob": 5111,
      "Ġfireworks": 5112,
      "Bella": 5113,
      "iggly": 5114,
      "ucked": 5115,
      "Ġseeing": 5116,
      "Ġflap": 5117,
      "ops": 5118,
      "Ġaccepted": 5119,
      "right": 5120,
      "ĠPip": 5121,
      "Today": 5122,
      "Ġblink": 5123,
      "mm": 5124,
      "Ġtremb": 5125,
      "ĠRos": 5126,
      "These": 5127,
      "Ġmuddy": 5128,
      "Ġmemory": 5129,
      "Ġmarried": 5130,
      "Ġtomatoes": 5131,
      "Ġexit": 5132,
      "ĠAnnie": 5133,
      "Ġwagging": 5134,
      "Ġfash": 5135,
      "Remy": 5136,
      "ĠCharlie": 5137,
      "Ġwandered": 5138,
      "unately": 5139,
      "ipping": 5140,
      "Ġgloves": 5141,
      "Ġcaptain": 5142,
      "Ġpillows": 5143,
      "Ġreceive": 5144,
      "Ġresp": 5145,
      "ĠPinky": 5146,
      "raged": 5147,
      "Ġduring": 5148,
      "ĠEverything": 5149,
      "etch": 5150,
      "Ġweb": 5151,
      "Ġpetals": 5152,
      "Ġwatered": 5153,
      "ĠEventually": 5154,
      "Ġsi": 5155,
      "ived": 5156,
      "Ġmanage": 5157,
      "Ġbrings": 5158,
      "Ġpinched": 5159,
      "Ġcakes": 5160,
      "Ġvanish": 5161,
      "Ġfashion": 5162,
      "ĠBluey": 5163,
      "Ġprinter": 5164,
      "Ġdestroyed": 5165,
      "Ġtreasures": 5166,
      "nce": 5167,
      "Ġallow": 5168,
      "ups": 5169,
      "Ġhadn": 5170,
      "Ġworse": 5171,
      "ĠFifi": 5172,
      "Surpr": 5173,
      "Ġvel": 5174,
      "Ġhits": 5175,
      "Ġbur": 5176,
      "xu": 5177,
      "Ġvelvet": 5178,
      "Ġappear": 5179,
      "Ġdisagree": 5180,
      "do": 5181,
      "Ġcatching": 5182,
      "ĠRo": 5183,
      "Ġscattered": 5184,
      "Ġmemories": 5185,
      "Ġsorts": 5186,
      "ĠPapa": 5187,
      "Ġhers": 5188,
      "Ġscolded": 5189,
      "Ġpears": 5190,
      "Ġoranges": 5191,
      "Ġsigns": 5192,
      "Ġbones": 5193,
      "Ġrang": 5194,
      "Ġsnapped": 5195,
      "Ġsits": 5196,
      "Ġseats": 5197,
      "uxu": 5198,
      "Ġgazed": 5199,
      "Ġraised": 5200,
      "Bl": 5201,
      "ĠMaria": 5202,
      "Ġzipped": 5203,
      "Ġpies": 5204,
      "Ġprints": 5205,
      "Ġshot": 5206,
      "Ġsliding": 5207,
      "ĠGod": 5208,
      "Ġfro": 5209,
      "Ġeasier": 5210,
      "ssible": 5211,
      "Ġskills": 5212,
      "Ġclimbs": 5213,
      "Ġtwirled": 5214,
      "ccer": 5215,
      "Ġblankets": 5216,
      "Ġforgotten": 5217,
      "Ġbaked": 5218,
      "ester": 5219,
      "Yum": 5220,
      "Ġdifference": 5221,
      "esterday": 5222,
      "Ġluxu": 5223,
      "orted": 5224,
      "Ġgolden": 5225,
      "ising": 5226,
      "Ġkitty": 5227,
      "ĠTw": 5228,
      "Ġcutting": 5229,
      "Ġseason": 5230,
      "aggie": 5231,
      "Ġnowhere": 5232,
      "Ġcrow": 5233,
      "ah": 5234,
      "Ġsoccer": 5235,
      "Ġdared": 5236,
      "ĠHenry": 5237,
      "Ġbites": 5238,
      "anny": 5239,
      "ĠHarry": 5240,
      "Ġlung": 5241,
      "Ġcelebrated": 5242,
      "choo": 5243,
      "chie": 5244,
      "Ġstraight": 5245,
      "Ġunlocked": 5246,
      "sters": 5247,
      "Ġsorting": 5248,
      "Ġcollected": 5249,
      "Ġbleed": 5250,
      "aped": 5251,
      "ding": 5252,
      "Ġwelcomed": 5253,
      "Ġvisited": 5254,
      "Ġspoons": 5255,
      "Ġours": 5256,
      "Ġstitch": 5257,
      "Ġjogging": 5258,
      "Surprise": 5259,
      "medi": 5260,
      "Ġemer": 5261,
      "ĠSpark": 5262,
      "mediately": 5263,
      "Ġisn": 5264,
      "Ġtong": 5265,
      "Ġtrave": 5266,
      "Ġwinner": 5267,
      "umble": 5268,
      "Ġsince": 5269,
      "Ġruin": 5270,
      "Ġprett": 5271,
      "Ok": 5272,
      "Moral": 5273,
      "ĠTony": 5274,
      "Ġattached": 5275,
      "Ġweeping": 5276,
      "Ġmarching": 5277,
      "Ġluxury": 5278,
      "Ġsimple": 5279,
      "ĠEach": 5280,
      "Ġshouldn": 5281,
      "Ġguessed": 5282,
      "Ġzero": 5283,
      "Ġcreated": 5284,
      "Ġstuffed": 5285,
      "Ġpets": 5286,
      "ction": 5287,
      "Ġwaist": 5288,
      "Ġfamil": 5289,
      "Ġurged": 5290,
      "Ġbowed": 5291,
      "Ġselling": 5292,
      "Ġfloating": 5293,
      "rr": 5294,
      "ĠSmith": 5295,
      "Ġbye": 5296,
      "ĠKing": 5297,
      "Ġvict": 5298,
      "Ġkingdom": 5299,
      "Ġolives": 5300,
      "Ġkicking": 5301,
      "ĠWiggly": 5302,
      "Ġpunished": 5303,
      "ĠLiz": 5304,
      "ĠBaby": 5305,
      "sit": 5306,
      "Ġtoes": 5307,
      "Ġgrant": 5308,
      "Ġmuscles": 5309,
      "Ġjewels": 5310,
      "ĠRosie": 5311,
      "Ġbeds": 5312,
      "Ġmelted": 5313,
      "Goodbye": 5314,
      "Ġslice": 5315,
      "Ġgrin": 5316,
      "Ġunderstanding": 5317,
      "Ġcollection": 5318,
      "Ġtore": 5319,
      "Ġmeasured": 5320,
      "aker": 5321,
      "Ġcras": 5322,
      "iers": 5323,
      "Ġtrapped": 5324,
      "omeday": 5325,
      "Ġlined": 5326,
      "'ve": 5327,
      "Ġacted": 5328,
      "fortunately": 5329,
      "Ġencouraged": 5330,
      "va": 5331,
      "ĠSandy": 5332,
      "Ġreceived": 5333,
      "ĠBefore": 5334,
      "Ġwaffles": 5335,
      "ĠWally": 5336,
      "Ġwest": 5337,
      "Ġmeow": 5338,
      "ents": 5339,
      "Ġpatterns": 5340,
      "rin": 5341,
      "ino": 5342,
      "Ġbrus": 5343,
      "eath": 5344,
      "Ġmouths": 5345,
      "kins": 5346,
      "Ġbang": 5347,
      "ring": 5348,
      "ĠKate": 5349,
      "Meow": 5350,
      "Ġpeaches": 5351,
      "Ġbreeze": 5352,
      "aded": 5353,
      "une": 5354,
      "Ġprinted": 5355,
      "Ġsoldiers": 5356,
      "Ġsomeday": 5357,
      "Ġpotatoes": 5358,
      "Ġpupil": 5359,
      "umes": 5360,
      "ĠMillie": 5361,
      "Ġdrinks": 5362,
      "Ġshed": 5363,
      "Ġexperience": 5364,
      "ĠTuna": 5365,
      "Ġpresents": 5366,
      "Ġfiref": 5367,
      "ĠRuby": 5368,
      "Ġsurround": 5369,
      "Ġnone": 5370,
      "Ġvoices": 5371,
      "osed": 5372,
      "eep": 5373,
      "Ġdrinking": 5374,
      "ĠUncle": 5375,
      "ishing": 5376,
      "Ġrelaxed": 5377,
      "Ġvictory": 5378,
      "cus": 5379,
      "Ġbreaking": 5380,
      "Ġpaints": 5381,
      "eve": 5382,
      "Ġhurried": 5383,
      "ission": 5384,
      "Ġtwink": 5385,
      "Ġtongue": 5386,
      "Ġcostumes": 5387,
      "Ġflat": 5388,
      "Ġmentioned": 5389,
      "Ġbegged": 5390,
      "Ġteasing": 5391,
      "Ġwhistling": 5392,
      "Ġfetch": 5393,
      "Ġpermission": 5394,
      "Ġsip": 5395,
      "Ġdisagreed": 5396,
      "Ġpearl": 5397,
      "akes": 5398,
      "Ġstro": 5399,
      "vest": 5400,
      "ĠThese": 5401,
      "Ġesc": 5402,
      "Ġappro": 5403,
      "Ġskipping": 5404,
      "Ġfishing": 5405,
      "ĠMay": 5406,
      "Leo": 5407,
      "Ġhighest": 5408,
      "Ġpra": 5409,
      "Ġwatches": 5410,
      "Ġsorted": 5411,
      "Ġringing": 5412,
      "ship": 5413,
      "Ġtonight": 5414,
      "ĠBo": 5415,
      "Ġopin": 5416,
      "Ġlets": 5417,
      "icing": 5418,
      "ĠQu": 5419,
      "Ġperfectly": 5420,
      "Ġshadows": 5421,
      "Ġimmediately": 5422,
      "Ġherbs": 5423,
      "Ġwarmth": 5424,
      "Ġspit": 5425,
      "Ġremained": 5426,
      "ther": 5427,
      "ĠIts": 5428,
      "walk": 5429,
      "Bobby": 5430,
      "irring": 5431,
      "Jen": 5432,
      "Ġsneak": 5433,
      "Ġsix": 5434,
      "Ġlips": 5435,
      "Ġkneeled": 5436,
      "Blue": 5437,
      "ĠChe": 5438,
      "Ġcontest": 5439,
      "utter": 5440,
      "Ġcartoons": 5441,
      "Ġsidewalk": 5442,
      "Ġcolours": 5443,
      "Ġstamps": 5444,
      "Ġago": 5445,
      "Ha": 5446,
      "ĠToto": 5447,
      "ĠBoo": 5448,
      "ĠFollow": 5449,
      "Ġeast": 5450,
      "Ġheaded": 5451,
      "oved": 5452,
      "\",": 5453,
      "Ġstrang": 5454,
      "Ġfed": 5455,
      "Ġladyb": 5456,
      "Ġsupposed": 5457,
      "Ġlick": 5458,
      "Ġroots": 5459,
      "Ġcrunch": 5460,
      "Ġmixing": 5461,
      "Ġworks": 5462,
      "Ġdecorations": 5463,
      "Mandy": 5464,
      "Ġknown": 5465,
      "Ġmelting": 5466,
      "Ġemergen": 5467,
      "ĠAb": 5468,
      "Ġrested": 5469,
      "Ġlines": 5470,
      "Ġlily": 5471,
      "ĠJul": 5472,
      "ĠSuzy": 5473,
      "Ġinstr": 5474,
      "Ġlaid": 5475,
      "ĠGr": 5476,
      "Ġcones": 5477,
      "Ġsucceeded": 5478,
      "Ġwiggle": 5479,
      "ety": 5480,
      "sing": 5481,
      "Ġshock": 5482,
      "Ġsetting": 5483,
      "ĠSlow": 5484,
      "Ġstudied": 5485,
      "Ġstrangers": 5486,
      "ĠRocky": 5487,
      "Really": 5488,
      "Ġtwigs": 5489,
      "Ġbrid": 5490,
      "Ġtheirs": 5491,
      "ĠDr": 5492,
      "Ġgirls": 5493,
      "boo": 5494,
      "!\",": 5495,
      "Ġscreams": 5496,
      "Ġlands": 5497,
      "Ġordered": 5498,
      "Ġstirring": 5499,
      "Ġmoments": 5500,
      "Ġfields": 5501,
      "Ġalright": 5502,
      "Ġstealing": 5503,
      "Andy": 5504,
      "ded": 5505,
      "Ġrul": 5506,
      "Ġbravely": 5507,
      "ĠBoth": 5508,
      "avid": 5509,
      "Ġmister": 5510,
      "!'": 5511,
      "Ġinvest": 5512,
      "Ġscratched": 5513,
      "Ġplaytime": 5514,
      "Ġripped": 5515,
      "Ġinvestig": 5516,
      "Ġtucked": 5517,
      "Ġresting": 5518,
      "Ġburning": 5519,
      "ishes": 5520,
      "Sammy": 5521,
      "ĠChicky": 5522,
      "ĠClara": 5523,
      "Ġbridges": 5524,
      "Ġofficer": 5525,
      "please": 5526,
      "Bird": 5527,
      "abies": 5528,
      "Ġsettled": 5529,
      "Ġachie": 5530,
      "Ġmatched": 5531,
      "Ġtex": 5532,
      "Ġtexture": 5533,
      "Happy": 5534,
      "Ġturning": 5535,
      "Ġwaits": 5536,
      "Peter": 5537,
      "ĠSky": 5538,
      "ored": 5539,
      "Ġtrembling": 5540,
      "isten": 5541,
      "Ġnails": 5542,
      "atie": 5543,
      "ĠSomeone": 5544,
      "Ġmuffins": 5545,
      "ids": 5546,
      "ĠJames": 5547,
      "Ġescaped": 5548,
      "Ġpiles": 5549,
      "Ġinvestigate": 5550,
      "Ġbroom": 5551,
      "osity": 5552,
      "Ġladybug": 5553,
      "Ġsore": 5554,
      "ĠPepper": 5555,
      "Ġadmir": 5556,
      "Ġappreciate": 5557,
      "Ġthreat": 5558,
      "Ġbabies": 5559,
      "Ġsilence": 5560,
      "Ġsisters": 5561,
      "Ġarea": 5562,
      "Ġemergency": 5563,
      "ides": 5564,
      "Ġdads": 5565,
      "Ġanswers": 5566,
      "Ġpupp": 5567,
      "Ġkeys": 5568,
      "Ġchewing": 5569,
      "Ġslapped": 5570,
      "Ġwiz": 5571,
      "Ġimportance": 5572,
      "Boo": 5573,
      "Ġserved": 5574,
      "ĠHop": 5575,
      "Ġsafety": 5576,
      "izing": 5577,
      "Bu": 5578,
      "Would": 5579,
      "Ġsparkle": 5580,
      "Ġtouching": 5581,
      "ĠLater": 5582,
      "Ġsoared": 5583,
      "igail": 5584,
      "Ġsings": 5585,
      "Ġhen": 5586,
      "allen": 5587,
      "Ella": 5588,
      "bers": 5589,
      "antly": 5590,
      "Momo": 5591,
      "ĠDino": 5592,
      "Ġkeeps": 5593,
      "Ġamazement": 5594,
      "Ġchallen": 5595,
      "Ġhesit": 5596,
      "Ġtwin": 5597,
      "Ġrevealed": 5598,
      "anna": 5599,
      "achel": 5600,
      "Ġdire": 5601,
      "Ġitem": 5602,
      "Ġsoaked": 5603,
      "zing": 5604,
      "Ġwrit": 5605,
      "Ġfoods": 5606,
      "Ġdinosaurs": 5607,
      "Ġrides": 5608,
      "Ġrecorded": 5609,
      "Ġtickle": 5610,
      "Ġinch": 5611,
      "ĠZigzag": 5612,
      "ĠMe": 5613,
      "Ġwizard": 5614,
      "Ġvet": 5615,
      "Ġtrips": 5616,
      "Ġglowed": 5617,
      "ĠFrog": 5618,
      "ĠAn": 5619,
      "Mmm": 5620,
      "Ġhi": 5621,
      "Ġbeamed": 5622,
      "Ġquack": 5623,
      "Ġcurled": 5624,
      "Ġhated": 5625,
      "Ġwink": 5626,
      "Ġshopping": 5627,
      "Ġeats": 5628,
      "Eventually": 5629,
      "ĠBug": 5630,
      "Ġpraised": 5631,
      "Ġwooden": 5632,
      "Ġbringing": 5633,
      "Ġmittens": 5634,
      "Ġstudying": 5635,
      "Ġguy": 5636,
      "Ġbrushes": 5637,
      "Ġspaceship": 5638,
      "Ġgust": 5639,
      "Ġcrawling": 5640,
      "ĠSomething": 5641,
      "Cat": 5642,
      "Ġruler": 5643,
      "Ġflav": 5644,
      "Ġdownstairs": 5645,
      "Ġshooting": 5646,
      "Ġnapping": 5647,
      "Ġtastes": 5648,
      "Ġmarks": 5649,
      "Ġsprinkles": 5650,
      "Ġcuddled": 5651,
      "Ġdot": 5652,
      "hello": 5653,
      "Ġfut": 5654,
      "plash": 5655,
      "ales": 5656,
      "aved": 5657,
      "Ġfuture": 5658,
      "Ġmonsters": 5659,
      "Ġcollecting": 5660,
      "Ġmeasuring": 5661,
      "ĠHappy": 5662,
      "'.": 5663,
      "Ġfamilies": 5664,
      "ĠFirst": 5665,
      "ĠOut": 5666,
      "ĠMo": 5667,
      "Ġthrill": 5668,
      "Ġoat": 5669,
      "irts": 5670,
      "Ġresult": 5671,
      "Jake": 5672,
      "ĠRabbit": 5673,
      "Ġapproached": 5674,
      "Ġcrunchy": 5675,
      "act": 5676,
      "Un": 5677,
      "Ġremem": 5678,
      "Ġbleeding": 5679,
      "Ġremembers": 5680,
      "Ġnicer": 5681,
      "Ġbeat": 5682,
      "Ġsneaky": 5683,
      "Ġdisturbed": 5684,
      "Ġleader": 5685,
      "Ġscaring": 5686,
      "Or": 5687,
      "hind": 5688,
      "Ġpeel": 5689,
      "ĠHope": 5690,
      "Ġfiremen": 5691,
      "ĠStar": 5692,
      "Ġneighborhood": 5693,
      "Ġgrey": 5694,
      "ĠNot": 5695,
      "Ġmotion": 5696,
      "Emily": 5697,
      "Ġnoon": 5698,
      "Ġpossible": 5699,
      "Somet": 5700,
      "Ġapologized": 5701,
      "Ġweighed": 5702,
      "ues": 5703,
      "ĠDid": 5704,
      "Ġtickets": 5705,
      "Cl": 5706,
      "Ġnaps": 5707,
      "Ġloose": 5708,
      "Ġpride": 5709,
      "Ġyouth": 5710,
      "Ġswims": 5711,
      "ped": 5712,
      "Ġstrings": 5713,
      "Ġrecognized": 5714,
      "Ġsiren": 5715,
      "Ġpoking": 5716,
      "fied": 5717,
      "ĠHo": 5718,
      "cious": 5719,
      "ha": 5720,
      "elvet": 5721,
      "Ġtricked": 5722,
      "Ġwonders": 5723,
      "Ġgained": 5724,
      "Ġwanting": 5725,
      "Ġcrashed": 5726,
      "Ġobe": 5727,
      "Ġseesaw": 5728,
      "Ġworker": 5729,
      "unnies": 5730,
      "ls": 5731,
      "oming": 5732,
      "Ġdraws": 5733,
      "Ġscooped": 5734,
      ".'": 5735,
      "Ġzooming": 5736,
      "Ġopinion": 5737,
      "Ġyelling": 5738,
      "Ġprepared": 5739,
      "Ġgrinned": 5740,
      "ĠSlowly": 5741,
      "Ġawe": 5742,
      "Ġdoggy": 5743,
      "Ġpoems": 5744,
      "Ġacting": 5745,
      "ĠBeep": 5746,
      "Ġhappiest": 5747,
      "Ġchef": 5748,
      "Ġsneaked": 5749,
      "Ġrespons": 5750,
      "Ġeff": 5751,
      "ĠAlways": 5752,
      "ĠLizzy": 5753,
      "Ġbunnies": 5754,
      "Ġowned": 5755,
      "Ġanytime": 5756,
      "Ġstruck": 5757,
      "Ġpedals": 5758,
      "Ġknelt": 5759,
      "oys": 5760,
      "Ollie": 5761,
      "ena": 5762,
      "Ġsecrets": 5763,
      "Ġpause": 5764,
      "Ġdecorated": 5765,
      "Ġhorns": 5766,
      "Ġagreement": 5767,
      "ĠSqu": 5768,
      "ided": 5769,
      "Ġfrost": 5770,
      "Ġtallest": 5771,
      "Ġobey": 5772,
      "Remember": 5773,
      "riends": 5774,
      "ogo": 5775,
      "ĠStop": 5776,
      "Have": 5777,
      "Ġdecides": 5778,
      "Ġbehaved": 5779,
      "Ġtugged": 5780,
      "Ġsides": 5781,
      "Ġwoof": 5782,
      "Ġslim": 5783,
      "zen": 5784,
      "Ġgoodnight": 5785,
      "Ġkeeper": 5786,
      "Ġsparkling": 5787,
      "Ġchirped": 5788,
      "Ġprecious": 5789,
      "mother": 5790,
      "ien": 5791,
      "lier": 5792,
      "Tr": 5793,
      "Ġrepeated": 5794,
      "Ġclaps": 5795,
      "indy": 5796,
      "Ġcontain": 5797,
      "affes": 5798,
      "Ġsnowballs": 5799,
      "ud": 5800,
      "rs": 5801,
      "ĠRay": 5802,
      "Ġourselves": 5803,
      "allow": 5804,
      "Ġgiraffes": 5805,
      "Ġbalancing": 5806,
      "Ġkindly": 5807,
      "Ġspending": 5808,
      "Ġwrites": 5809,
      "ays": 5810,
      "ppers": 5811,
      "ĠLike": 5812,
      "omas": 5813,
      "Ġprop": 5814,
      "Ġhissed": 5815,
      "First": 5816,
      "Ġfrozen": 5817,
      "Ġfrosting": 5818,
      "Ġeffort": 5819,
      "Ġbuzzing": 5820,
      "Ġstruggled": 5821,
      "oh": 5822,
      "Ġadmiring": 5823,
      "Ġrele": 5824,
      "ĠSteve": 5825,
      "iggy": 5826,
      "Ġsweeties": 5827,
      "ĠVelvet": 5828,
      "Ġslimy": 5829,
      "Ġbrushed": 5830,
      "Ġbloomed": 5831,
      "Susie": 5832,
      "ĠAm": 5833,
      "Ġpolished": 5834,
      "arth": 5835,
      "ĠZoe": 5836,
      "anted": 5837,
      "Ġboo": 5838,
      "Ġcomfy": 5839,
      "Ġstaying": 5840,
      "Ġrubbing": 5841,
      "Ducky": 5842,
      "Ġrocking": 5843,
      "Ġpockets": 5844,
      "Ġthrilled": 5845,
      "Ġbeside": 5846,
      "Ġcomple": 5847,
      "ĠAunt": 5848,
      "ĠMaggie": 5849,
      "Ah": 5850,
      "Ġeight": 5851,
      "isdom": 5852,
      "urry": 5853,
      "Ġmachines": 5854,
      "Ġearlier": 5855,
      "Ġyesterday": 5856,
      "Ġseems": 5857,
      "Ġrust": 5858,
      "ĠKeep": 5859,
      "Sp": 5860,
      "Ġtraveled": 5861,
      "Ġfolding": 5862,
      "Ġboom": 5863,
      "Ġcracked": 5864,
      "ities": 5865,
      "Ġhugging": 5866,
      "Ġradishes": 5867,
      "ĠStitch": 5868,
      "Ġloving": 5869,
      "Ġopening": 5870,
      "Ġcircus": 5871,
      "Ġcuriosity": 5872,
      "Ġsurrounded": 5873,
      "ĠRachel": 5874,
      "Ġspraying": 5875,
      "Ġdemanded": 5876,
      "Ġpaintings": 5877,
      "amie": 5878,
      "ĠGreen": 5879,
      "Ġremoved": 5880,
      "Ġgaze": 5881,
      "Ġhonk": 5882,
      "Ġpebbles": 5883,
      "Ġhardly": 5884,
      "Ġzookeeper": 5885,
      "Ġcatches": 5886,
      "edding": 5887,
      "Ġsting": 5888,
      "Ġstripes": 5889,
      "Ġpowers": 5890,
      "Ġloaded": 5891,
      "ĠPippa": 5892,
      "Sometimes": 5893,
      "Ġpots": 5894,
      "Ġsplashes": 5895,
      "Ġpetted": 5896,
      "Ġmatching": 5897,
      "ĠDavid": 5898,
      "Thanks": 5899,
      "Ġtoss": 5900,
      "Ġbelly": 5901,
      "Ġstare": 5902,
      "Yummy": 5903,
      "ibb": 5904,
      "Ġwhatever": 5905,
      "Ġapologize": 5906,
      "Ġrocked": 5907,
      "Ġcomforted": 5908,
      "ĠBree": 5909,
      "Ġdecision": 5910,
      "Ġribbons": 5911,
      "ĠJoy": 5912,
      "ĠBirdie": 5913,
      "ern": 5914,
      "Ġstruggling": 5915,
      "Ġexpected": 5916,
      "Ġdeser": 5917,
      "Ġsteep": 5918,
      "wh": 5919,
      "Ġprotected": 5920,
      "Ġneighbors": 5921,
      "Ġsmiley": 5922,
      "Ġchases": 5923,
      "During": 5924,
      "Ġgranted": 5925,
      "Ġcrumb": 5926,
      "ĠMat": 5927,
      "Ġpurred": 5928,
      "Ġdiving": 5929,
      "Ġsadness": 5930,
      "Whiskers": 5931,
      "Ġorganizing": 5932,
      "lowers": 5933,
      "Ġeagle": 5934,
      "Ġheroes": 5935,
      "Ġdipped": 5936,
      "Ġsunlight": 5937,
      "Ġlied": 5938,
      "Ġpastels": 5939,
      "ĠFrank": 5940,
      "Ex": 5941,
      "Ġroads": 5942,
      "Ġsafer": 5943,
      "Ġscru": 5944,
      "ĠMilly": 5945,
      "Ġargued": 5946,
      "Ġgoals": 5947,
      "ĠWater": 5948,
      "Ġdiscovery": 5949,
      "ĠAbigail": 5950,
      "Ġpeered": 5951,
      "Ġvillag": 5952,
      "Ro": 5953,
      "ĠBouncy": 5954,
      "use": 5955,
      "ana": 5956,
      "loe": 5957,
      "Ġtim": 5958,
      "Ġdragons": 5959,
      "Ġbuildings": 5960,
      "Ġbuckets": 5961,
      "Ġparties": 5962,
      "Ġbeard": 5963,
      "Ġwedding": 5964,
      "Rex": 5965,
      "Ġflutter": 5966,
      "Ġplanets": 5967,
      "Ġann": 5968,
      "ĠRobby": 5969,
      "Ġpolishing": 5970,
      "Ġfasc": 5971,
      "ira": 5972,
      "Ġreleased": 5973,
      "Ġcrabs": 5974,
      "ĠChr": 5975,
      "ĠGogo": 5976,
      "ĠWatch": 5977,
      "Ġtails": 5978,
      "Ġsausages": 5979,
      "ĠJu": 5980,
      "Ġargu": 5981,
      "Ġcontro": 5982,
      "Ġbottles": 5983,
      "Ġwiggled": 5984,
      "Ġteased": 5985,
      "uke": 5986,
      "Ġarguing": 5987,
      "Ġsled": 5988,
      "Ġdragged": 5989,
      "Ġpadd": 5990,
      "ĠCar": 5991,
      "Ġroaring": 5992,
      "Ġclearing": 5993,
      "Ġshirts": 5994,
      "Ġmovies": 5995,
      "Ġgathering": 5996,
      "Ġairpl": 5997,
      "Ġwid": 5998,
      "joyed": 5999,
      "Ġteaches": 6000,
      "Ġspiders": 6001,
      "Ġlimes": 6002,
      "ĠRemember": 6003,
      "ĠDare": 6004,
      "Ġoverjoyed": 6005,
      "Ġactually": 6006,
      "Ġsighs": 6007,
      "Ġcontinue": 6008,
      "Ġcuddle": 6009,
      "Ġsoaring": 6010,
      "Ġsmallest": 6011,
      "ĠJess": 6012,
      "Ġdrives": 6013,
      "Ġrip": 6014,
      "Ġsparkles": 6015,
      "Ġsitu": 6016,
      "Ġcubes": 6017,
      "Ġrefres": 6018,
      "Ġtalent": 6019,
      "ĠOlly": 6020,
      "Ġchallenge": 6021,
      "Ġgrandmother": 6022,
      "ĠSplash": 6023,
      "Ġpouring": 6024,
      "umm": 6025,
      "Ġpretends": 6026,
      "Ġfascin": 6027,
      "Ġcuts": 6028,
      "Ġbank": 6029,
      "Ġpeppers": 6030,
      "Ġquarreling": 6031,
      "Ġmane": 6032,
      "Ġshivered": 6033,
      "Ġdusty": 6034,
      "ley": 6035,
      "Ġwondering": 6036,
      "Ġvillagers": 6037,
      "Ġstretching": 6038,
      "ib": 6039,
      "njoy": 6040,
      "Ġweeks": 6041,
      "Ġwherever": 6042,
      "Ġdarker": 6043,
      "Tiny": 6044,
      "jam": 6045,
      "sses": 6046,
      "ĠX": 6047,
      "Ġrings": 6048,
      "Ġonwards": 6049,
      "ĠKatie": 6050,
      "Ġunited": 6051,
      "Achoo": 6052,
      "Johnny": 6053,
      "Ġbead": 6054,
      "ĠEveryday": 6055,
      "ĠBeing": 6056,
      "Ġprettiest": 6057,
      "Ġcaut": 6058,
      "Ġrealize": 6059,
      "Ġcompany": 6060,
      "Ġpenguins": 6061,
      "annah": 6062,
      "Fr": 6063,
      "Luna": 6064,
      "ĠSpring": 6065,
      "Ġbedtime": 6066,
      "ĠWisdom": 6067,
      "Ġcompleted": 6068,
      "ĠLeave": 6069,
      "âĢĿ.": 6070,
      "Ġknights": 6071,
      "Ġflags": 6072,
      "ĠJe": 6073,
      "ĠBecause": 6074,
      "Ġplayroom": 6075,
      "ĠPrin": 6076,
      "Ġactions": 6077,
      "ĠZero": 6078,
      "Ġlearns": 6079,
      "Ġgotten": 6080,
      "Ġpatience": 6081,
      "dam": 6082,
      "inda": 6083,
      "Ġshrug": 6084,
      "Ġkites": 6085,
      "Ġresponsible": 6086,
      "Ġfears": 6087,
      "Ġdestination": 6088,
      "Ġwires": 6089,
      "Ġreply": 6090,
      "Ġdam": 6091,
      "Ġwrist": 6092,
      "aws": 6093,
      "Ġpacking": 6094,
      "Ġfault": 6095,
      "Ġmountains": 6096,
      "Ġapplauded": 6097,
      "Ġscrubbed": 6098,
      "Ġma": 6099,
      "ĠAva": 6100,
      "Ġcrept": 6101,
      "Uh": 6102,
      "ĠEarth": 6103,
      "Ġsatis": 6104,
      "Ġthird": 6105,
      "Ġphot": 6106,
      "Ġpencils": 6107,
      "Ġwins": 6108,
      "Ġsticking": 6109,
      "Ġbaker": 6110,
      "Ġvisiting": 6111,
      "Ġwound": 6112,
      "Ġpeas": 6113,
      "Ġuses": 6114,
      "Ġreminder": 6115,
      "Ġcontrol": 6116,
      "Grandpa": 6117,
      "ashed": 6118,
      "Ġjoking": 6119,
      "Ġawake": 6120,
      "Ġinstruct": 6121,
      "Ġstaring": 6122,
      "ĠPut": 6123,
      "Ġhealed": 6124,
      "Ġhitting": 6125,
      "ĠFish": 6126,
      "Ġscreaming": 6127,
      "Ġbegin": 6128,
      "Rob": 6129,
      "uckily": 6130,
      "ĠFriends": 6131,
      "ĠMoo": 6132,
      "icorn": 6133,
      "Ġhelmets": 6134,
      "enty": 6135,
      "Ġunicorn": 6136,
      "ler": 6137,
      "seek": 6138,
      "Ġtowels": 6139,
      "Silly": 6140,
      "ĠLou": 6141,
      "Ġchips": 6142,
      "ica": 6143,
      "Ġcreation": 6144,
      "Ġwasted": 6145,
      "bie": 6146,
      "Mar": 6147,
      "ĠBehind": 6148,
      "Ġmasks": 6149,
      "laire": 6150,
      "Ġforgi": 6151,
      "Ġitems": 6152,
      "Ġfirefight": 6153,
      "Ġoutdo": 6154,
      "Ġlollipops": 6155,
      "Watch": 6156,
      "Ġheav": 6157,
      "Ġguns": 6158,
      "Ġdied": 6159,
      "ĠHippy": 6160,
      "Ġseas": 6161,
      "Ġglitter": 6162,
      "uddles": 6163,
      "Ġarrive": 6164,
      "Ġweren": 6165,
      "Ġstole": 6166,
      "Ġscales": 6167,
      "Ġperched": 6168,
      "Ġaccom": 6169,
      "Ġlogs": 6170,
      "Ġachieve": 6171,
      "die": 6172,
      "Ġpracticing": 6173,
      "ining": 6174,
      "Ġwhose": 6175,
      "Stay": 6176,
      "Ġpumpkins": 6177,
      "Ġinstructions": 6178,
      "Ġswoop": 6179,
      "Ġbatteries": 6180,
      "Ġcandies": 6181,
      "Ġagrees": 6182,
      "Ġproject": 6183,
      "Ġsnakes": 6184,
      "Ġchirping": 6185,
      "Benny": 6186,
      "Ġshelves": 6187,
      "Ġprotecting": 6188,
      "Ġexact": 6189,
      "Ġparked": 6190,
      "ĠCra": 6191,
      "Ġpatiently": 6192,
      "Ġactiv": 6193,
      "Ġshoulders": 6194,
      "Ġvideos": 6195,
      "Ġblows": 6196,
      "Fo": 6197,
      "hee": 6198,
      "Ġpromises": 6199,
      "go": 6200,
      "Ġdent": 6201,
      "usan": 6202,
      "ners": 6203,
      "uest": 6204,
      "Ġexamined": 6205,
      "Ġairplane": 6206,
      "jamas": 6207,
      "Doggy": 6208,
      "Ġroses": 6209,
      "Ġaccompl": 6210,
      "Ġtasks": 6211,
      "Dave": 6212,
      "ĠHoot": 6213,
      "Poppy": 6214,
      "ĠBop": 6215,
      "Bunny": 6216,
      "Ġbeads": 6217,
      "Ġbowls": 6218,
      "Ġcrumbs": 6219,
      "zes": 6220,
      "Ġlistens": 6221,
      "Pete": 6222,
      "ĠLove": 6223,
      "ĠCatty": 6224,
      "ĠBrownie": 6225,
      "ĠOl": 6226,
      "Ġbunch": 6227,
      "Ġcough": 6228,
      "Ġdolphins": 6229,
      "Ġguest": 6230,
      "cakes": 6231,
      "Ġrequested": 6232,
      "Ġremote": 6233,
      "Ġimproved": 6234,
      "anta": 6235,
      "Ġbrand": 6236,
      "Ġreaching": 6237,
      "ayla": 6238,
      "Ġalien": 6239,
      "ĠBye": 6240,
      "ĠJan": 6241,
      "irm": 6242,
      "ĠSun": 6243,
      "Ġcopy": 6244,
      "Ġcheering": 6245,
      "Ġphotos": 6246,
      "ĠChew": 6247,
      "ĠJulie": 6248,
      "Bad": 6249,
      "ĠBlink": 6250,
      "Time": 6251,
      "Ġcans": 6252,
      "ĠCuddles": 6253,
      "Ġtimer": 6254,
      "ĠBy": 6255,
      "Ġreplaced": 6256,
      "Ġworkers": 6257,
      "athy": 6258,
      "Ġstern": 6259,
      "Mike": 6260,
      "ĠEnjoy": 6261,
      "Ġneither": 6262,
      "aster": 6263,
      "George": 6264,
      "Ġpassing": 6265,
      "Ġmisses": 6266,
      "Ġcurtains": 6267,
      "Ġconfl": 6268,
      "Chirpy": 6269,
      "Ġrainbows": 6270,
      "Ġrubs": 6271,
      "Ġrolls": 6272,
      "uctantly": 6273,
      "Ġpatted": 6274,
      "ilo": 6275,
      "Ġpajamas": 6276,
      "Ġoutdoors": 6277,
      "esome": 6278,
      "dies": 6279,
      "Ġcomplaining": 6280,
      "ĠSquirrel": 6281,
      "Lola": 6282,
      "Run": 6283,
      "Ġpuppet": 6284,
      "ĠPrincess": 6285,
      "Ġcloses": 6286,
      "Ġbeneath": 6287,
      "Ġlap": 6288,
      "Ġdrums": 6289,
      "Ġtune": 6290,
      "ĠBeth": 6291,
      "ĠMouse": 6292,
      "Ġfilling": 6293,
      "Miss": 6294,
      "angled": 6295,
      "Ġrefuse": 6296,
      "ĠSorry": 6297,
      "Ġsweat": 6298,
      "Ġfaced": 6299,
      "...": 6300,
      "Ġseven": 6301,
      "Ġbalanced": 6302,
      "Ġrescued": 6303,
      "bl": 6304,
      "neath": 6305,
      "Ġquacked": 6306,
      "ĠAbby": 6307,
      "Paul": 6308,
      "istle": 6309,
      "Ġawesome": 6310,
      "Ġmission": 6311,
      "ĠHowever": 6312,
      "Ġguys": 6313,
      "Ġcautious": 6314,
      "Ġconflict": 6315,
      "Ġcause": 6316,
      "Ġvent": 6317,
      "Ġobserved": 6318,
      "Ġintroduc": 6319,
      "ĠThomas": 6320,
      "Ġpastries": 6321,
      "nie": 6322,
      "ĠOur": 6323,
      "Ġdoctors": 6324,
      "Ġexactly": 6325,
      "Ġrule": 6326,
      "Ġbecoming": 6327,
      "Ġmes": 6328,
      "Ġpoliceman": 6329,
      "uly": 6330,
      "Ġrockets": 6331,
      "you": 6332,
      "ĠYes": 6333,
      "ĠDot": 6334,
      "Ġfairies": 6335,
      "lay": 6336,
      "Ġpout": 6337,
      "An": 6338,
      "Ġinsist": 6339,
      "Ġblooming": 6340,
      "Ġtractor": 6341,
      "Ġfarther": 6342,
      "ĠSad": 6343,
      "avi": 6344,
      "Oops": 6345,
      "Great": 6346,
      "Ġremembering": 6347,
      "Ġincluded": 6348,
      "Ġcurly": 6349,
      "Fine": 6350,
      "Zoom": 6351,
      "Ġteamwork": 6352,
      "zie": 6353,
      "Ġfascinated": 6354,
      "Ġslam": 6355,
      "Ġwobbled": 6356,
      "Ġtruly": 6357,
      "Ġhelpers": 6358,
      "Ġsights": 6359,
      "Ġpaddle": 6360,
      "Ġfirm": 6361,
      "Ġstumble": 6362,
      "Henry": 6363,
      "ĠJilly": 6364,
      "acob": 6365,
      "Ġcaused": 6366,
      "Ġprayer": 6367,
      "Ġspong": 6368,
      "Ġrecording": 6369,
      "kelly": 6370,
      "ais": 6371,
      "Ġstarfish": 6372,
      "Ġtraded": 6373,
      "Ġsupplies": 6374,
      "Ġthro": 6375,
      "Ġpointy": 6376,
      "Ġinviting": 6377,
      "Ġsituation": 6378,
      "eah": 6379,
      "gers": 6380,
      "Ġeveryday": 6381,
      "Ġneighbourhood": 6382,
      "Ġornaments": 6383,
      "ĠAlly": 6384,
      "inkle": 6385,
      "Ġvalued": 6386,
      "Ġadding": 6387,
      "Some": 6388,
      "Ġreluctantly": 6389,
      "Ġdots": 6390,
      "Ġstays": 6391,
      "Ġbare": 6392,
      "Ġtables": 6393,
      "Ġprettier": 6394,
      "Ġdesert": 6395,
      "Ġsnowmen": 6396,
      "Ġsteady": 6397,
      "Ġminerals": 6398,
      "araway": 6399,
      "Ġthorn": 6400,
      "ody": 6401,
      "Ġast": 6402,
      "Ġfaraway": 6403,
      "Ġglasses": 6404,
      "ĠGet": 6405,
      "ĠFoxy": 6406,
      "ĠSure": 6407,
      "ĠWelcome": 6408,
      "Ġswooped": 6409,
      "Ġunf": 6410,
      "ĠTwo": 6411,
      "Ġforks": 6412,
      "Ġusually": 6413,
      "Ġusual": 6414,
      "Polly": 6415,
      "Ġdar": 6416,
      "ĠJamie": 6417,
      "Ġwinked": 6418,
      "Ġsneezing": 6419,
      "Ġsolut": 6420,
      "Ġloading": 6421,
      "Ġsponge": 6422,
      "ĠQuick": 6423,
      "Ġinsects": 6424,
      "ĠOnce": 6425,
      "Ġpans": 6426,
      "Dog": 6427,
      "ĠSanta": 6428,
      "Ġsobbed": 6429,
      "James": 6430,
      "Ġgrowling": 6431,
      "sm": 6432,
      "arter": 6433,
      "Ġthroat": 6434,
      "Ġnoses": 6435,
      "ĠChloe": 6436,
      "ĠJosh": 6437,
      "ĠDizzy": 6438,
      "Ġscarves": 6439,
      "Ġconfident": 6440,
      "ĠWant": 6441,
      "Ġyourselves": 6442,
      "agull": 6443,
      "Ġhomework": 6444,
      "ĠStay": 6445,
      "Ġsuperheroes": 6446,
      "Joey": 6447,
      "Ġsmarter": 6448,
      "Ġwindy": 6449,
      "Tina": 6450,
      "Ġlibrarian": 6451,
      "ĠKids": 6452,
      "ĠĠ": 6453,
      "Ġgems": 6454,
      "Days": 6455,
      "ora": 6456,
      "Ġunderneath": 6457,
      "Ġkicks": 6458,
      "Ġknowled": 6459,
      "Ġitchy": 6460,
      "Ġjackets": 6461,
      "Ġknowledge": 6462,
      "ĠSkelly": 6463,
      "ĠFor": 6464,
      "Ġsurface": 6465,
      "Ġuntie": 6466,
      "Ġcomm": 6467,
      "ĠDuck": 6468,
      "Ġprincesses": 6469,
      "...\"": 6470,
      "Those": 6471,
      "Hold": 6472,
      "eed": 6473,
      "ido": 6474,
      "Yeah": 6475,
      "coon": 6476,
      "Ġsquares": 6477,
      "ĠHenny": 6478,
      "Ġgiggling": 6479,
      "Ġwarnings": 6480,
      "iar": 6481,
      "Ġreads": 6482,
      "vin": 6483,
      "Our": 6484,
      "Ġchoo": 6485,
      "son": 6486,
      "Ġyounger": 6487,
      "Toby": 6488,
      "Ġclowns": 6489,
      "ĠMix": 6490,
      "Ġropes": 6491,
      "Ġbiting": 6492,
      "Ġcrowd": 6493,
      "Danny": 6494,
      "ĠUnfortunately": 6495,
      "pite": 6496,
      "True": 6497,
      "Ġseagull": 6498,
      "Ġpaddled": 6499,
      "Ġwears": 6500,
      "Ġdelivered": 6501,
      "ĠMon": 6502,
      "Ġonions": 6503,
      "Ġtwirl": 6504,
      "Ġbuzzed": 6505,
      "Ġcomplained": 6506,
      "Ġbumpy": 6507,
      "Ġstem": 6508,
      "Ew": 6509,
      "Mrs": 6510,
      "Ġpiggy": 6511,
      "ĠAnne": 6512,
      "Ġdirection": 6513,
      "ouch": 6514,
      "Ġdived": 6515,
      "Roar": 6516,
      "Ġtangled": 6517,
      "Ġstartled": 6518,
      "ults": 6519,
      "Ġleaning": 6520,
      "ĠAnt": 6521,
      "bbie": 6522,
      "ĠJones": 6523,
      "Ġbadge": 6524,
      "ĠPo": 6525,
      "Ġunp": 6526,
      "Grace": 6527,
      "Ġdeal": 6528,
      "though": 6529,
      "Annie": 6530,
      "Ġvowed": 6531,
      "Ġnapkins": 6532,
      "anes": 6533,
      "Ġrisk": 6534,
      "Ġtickled": 6535,
      "Ġcovers": 6536,
      "Ġpec": 6537,
      "Shh": 6538,
      "Ġyells": 6539,
      "Ġsatisfied": 6540,
      "int": 6541,
      "Ġknocks": 6542,
      "Ġrefreshed": 6543,
      "tuce": 6544,
      "ĠSc": 6545,
      "cuse": 6546,
      "Ġcous": 6547,
      "Maggie": 6548,
      "Ġarrows": 6549,
      "ĠWhistle": 6550,
      "Pe": 6551,
      "Ġwipes": 6552,
      "Ġspeaking": 6553,
      "Ġlettuce": 6554,
      "Ġguessing": 6555,
      "ĠQuack": 6556,
      "Unfortunately": 6557,
      "Ġripe": 6558,
      "ĠSusan": 6559,
      "ĠDodo": 6560,
      "Ġhides": 6561,
      "Ġchoices": 6562,
      "ĠRover": 6563,
      "Ġsigned": 6564,
      "Buzz": 6565,
      "Ġslower": 6566,
      "Ġseeker": 6567,
      "Ġintroduced": 6568,
      "Ġsinger": 6569,
      "Ġcreating": 6570,
      "ĠMatt": 6571,
      "Ġcent": 6572,
      "Ġfroze": 6573,
      "uggles": 6574,
      "Ġjoked": 6575,
      "Ġsqueal": 6576,
      "Ġexplorers": 6577,
      "Ġtoaster": 6578,
      "fit": 6579,
      "Ġavo": 6580,
      "Sophie": 6581,
      "anging": 6582,
      "Ġpraying": 6583,
      "Ġwritten": 6584,
      "Ġdiscovering": 6585,
      "ĠDara": 6586,
      "Ġprovided": 6587,
      "ĠLion": 6588,
      "Ġrefle": 6589,
      "Excuse": 6590,
      "Ġmushrooms": 6591,
      "ĠJeff": 6592,
      "ĠPaws": 6593,
      "Ġknees": 6594,
      "Ġpaying": 6595,
      "Ġhider": 6596,
      "ences": 6597,
      "ĠAsh": 6598,
      "Ġwandering": 6599,
      "Charlie": 6600,
      "Ġimages": 6601,
      "Ġstung": 6602,
      "ĠWink": 6603,
      "Ġmagnets": 6604,
      "Ġbarely": 6605,
      "Ġbehaving": 6606,
      "Ġtipto": 6607,
      "?\",": 6608,
      "Ġmarked": 6609,
      "brush": 6610,
      "rrr": 6611,
      "ĠDee": 6612,
      "Ġrestored": 6613,
      "Ġleading": 6614,
      "lled": 6615,
      "Ġchuck": 6616,
      "Ġnine": 6617,
      "ados": 6618,
      "Ġgreet": 6619,
      "Teddy": 6620,
      "Ġbravery": 6621,
      "Ġgears": 6622,
      "ĠSnuggles": 6623,
      "ky": 6624,
      "Ġcompetition": 6625,
      "eal": 6626,
      "Ġoutfit": 6627,
      "oline": 6628,
      "Ġwishing": 6629,
      "Ġproperly": 6630,
      "Ġventured": 6631,
      "aa": 6632,
      "tle": 6633,
      "Ġchat": 6634,
      "Ġdances": 6635,
      "Ġmuscle": 6636,
      "Ġpens": 6637,
      "Ġsalty": 6638,
      "amb": 6639,
      "ĠBetsy": 6640,
      "Ġranger": 6641,
      "ĠZiggy": 6642,
      "Ġdeserve": 6643,
      "Ġhowever": 6644,
      "sequ": 6645,
      "Ġmatters": 6646,
      "Ġdarkness": 6647,
      "Ġburst": 6648,
      "ĠFu": 6649,
      "Ġrainy": 6650,
      "Ġcobwebs": 6651,
      "Ġruining": 6652,
      "Ġchefs": 6653,
      "Ġbak": 6654,
      "Ġconsequ": 6655,
      "Ġblocking": 6656,
      "usted": 6657,
      "itely": 6658,
      "sty": 6659,
      "Ġscur": 6660,
      "Ġvines": 6661,
      "Ġfab": 6662,
      "abel": 6663,
      "Ġfabric": 6664,
      "Ġentire": 6665,
      "Ġbasement": 6666,
      "Ġleast": 6667,
      "Ġperformed": 6668,
      "ĠBuggy": 6669,
      "Sn": 6670,
      "Ġscratches": 6671,
      "Ġheavier": 6672,
      "ĠClaire": 6673,
      "Ġmints": 6674,
      "Ġavocados": 6675,
      "Ġtwirling": 6676,
      "However": 6677,
      "ĠLinda": 6678,
      "rink": 6679,
      "fl": 6680,
      "Ġlosing": 6681,
      "Ġscurried": 6682,
      "ĠJenna": 6683,
      "Ġsunflowers": 6684,
      "Ġrainco": 6685,
      "Ġswords": 6686,
      "Tweet": 6687,
      "Ġclick": 6688,
      "ĠLaser": 6689,
      "agic": 6690,
      "Ġjobs": 6691,
      "Ġsilent": 6692,
      "Ġflames": 6693,
      "Ġnecklaces": 6694,
      "ĠLuke": 6695,
      "Ġrelief": 6696,
      "ĠGrumpy": 6697,
      "Ġsnat": 6698,
      "Ġrotting": 6699,
      "Ġsewed": 6700,
      "len": 6701,
      "Jerry": 6702,
      "Listen": 6703,
      "Ġtricky": 6704,
      "Follow": 6705,
      "Ġlighter": 6706,
      "ophia": 6707,
      "Ġbows": 6708,
      "ĠSkip": 6709,
      "Ġexha": 6710,
      "Ġsolution": 6711,
      "Ġconsequences": 6712,
      "Alex": 6713,
      "ĠLena": 6714,
      "Ġstain": 6715,
      "Ġtires": 6716,
      "Beep": 6717,
      "Ġunpacked": 6718,
      "Ab": 6719,
      "Ġpartic": 6720,
      "rance": 6721,
      "Ġraces": 6722,
      "Ġpins": 6723,
      "Ġbumps": 6724,
      "Ġwraps": 6725,
      "Ġwow": 6726,
      "Ġbacked": 6727,
      "Ġdecorating": 6728,
      "aisies": 6729,
      "cher": 6730,
      "Ġdentist": 6731,
      "Ġneedles": 6732,
      "Ġpurr": 6733,
      "Ġcautiously": 6734,
      "Ġlifting": 6735,
      "izzie": 6736,
      "ĠPr": 6737,
      "Ġaccomplish": 6738,
      "Ġdaisies": 6739,
      "Ġtriangles": 6740,
      "ept": 6741,
      "Ġhesitated": 6742,
      "Ġannoy": 6743,
      "ĠThose": 6744,
      "Ġgrowls": 6745,
      "Ġcrackers": 6746,
      "oke": 6747,
      "Ġstomped": 6748,
      "Ġcott": 6749,
      "Ġgrabbing": 6750,
      "Ġbodies": 6751,
      "Ġfigured": 6752,
      "Ġmater": 6753,
      "ĠTree": 6754,
      "Ġbuying": 6755,
      "ĠFido": 6756,
      "ĠRolly": 6757,
      "Ġmaterial": 6758,
      "ĠAdam": 6759,
      "Ġswans": 6760,
      "Ġties": 6761,
      "Ġgri": 6762,
      "vers": 6763,
      "Ġgrows": 6764,
      "Ġsweets": 6765,
      "ĠGoodbye": 6766,
      "Ġowners": 6767,
      "Ġcheeks": 6768,
      "Ġflavor": 6769,
      "ĠCathy": 6770,
      "Big": 6771,
      "ĠJessie": 6772,
      "ĠEl": 6773,
      "Ġsuffering": 6774,
      "vroom": 6775,
      "Ġfact": 6776,
      "Ġgroups": 6777,
      "bly": 6778,
      "Ġforehead": 6779,
      "Ġlungs": 6780,
      "Harry": 6781,
      "Ġrepa": 6782,
      "Ġinterested": 6783,
      "Ġbakery": 6784,
      "Lilly": 6785,
      "ĠMilo": 6786,
      "Ġfreed": 6787,
      "itches": 6788,
      "ĠNothing": 6789,
      "Ġchuckled": 6790,
      "Tw": 6791,
      "For": 6792,
      "Ġswept": 6793,
      "Ġconn": 6794,
      "ĠĊĠ": 6795,
      "?'": 6796,
      "Ġthud": 6797,
      "Ġexhausted": 6798,
      "Ġtapped": 6799,
      "Ġtwinkling": 6800,
      "Ru": 6801,
      "Ġnect": 6802,
      "rosty": 6803,
      "Ġnectar": 6804,
      "elle": 6805,
      "Ġfeast": 6806,
      "Ġdarling": 6807,
      "indr": 6808,
      "ĠMad": 6809,
      "Ġworries": 6810,
      "Ġuns": 6811,
      "Ġtunnels": 6812,
      "Ġfuzzy": 6813,
      "Ġreason": 6814,
      "ĠTrust": 6815,
      "Ġrepaired": 6816,
      "ĠBall": 6817,
      "ĠCopper": 6818,
      "Ġactivities": 6819,
      "lets": 6820,
      "Ġpecked": 6821,
      "ĠHannah": 6822,
      "ĠTry": 6823,
      "Ġentrance": 6824,
      "ĠListen": 6825,
      "Ġmeals": 6826,
      "Ġraindr": 6827,
      "Ġcompletely": 6828,
      "Ġparticular": 6829,
      "Ġmailed": 6830,
      "ctions": 6831,
      "Ġnests": 6832,
      "Ġwaiter": 6833,
      "Ġcuddly": 6834,
      "Ġsense": 6835,
      "ĠNana": 6836,
      "Ġcolored": 6837,
      "arky": 6838,
      "Ġleap": 6839,
      "band": 6840,
      "Ġplenty": 6841,
      "step": 6842,
      "Ġpeeking": 6843,
      "ĠCara": 6844,
      "Ġslammed": 6845,
      "no": 6846,
      "Ġplayers": 6847,
      "ĠBirthday": 6848,
      "Ġbudge": 6849,
      "Ġmonth": 6850,
      "ĠQ": 6851,
      "Ġscra": 6852,
      "Ġforgets": 6853,
      "Ġden": 6854,
      "Ġhandful": 6855,
      "ĠOliver": 6856,
      "Ġmer": 6857,
      "ossible": 6858,
      "Ġgenie": 6859,
      "ĠChrist": 6860,
      "Ġstool": 6861,
      "iggie": 6862,
      "ĠPup": 6863,
      "Ġtalks": 6864,
      "Ġfeeding": 6865,
      "Ġpassports": 6866,
      "Ġfilms": 6867,
      "ĠSuzie": 6868,
      "Ġbaths": 6869,
      "Ġimpossible": 6870,
      "Ġdetermination": 6871,
      "May": 6872,
      "Ġprinting": 6873,
      "boat": 6874,
      "Ġdesigned": 6875,
      "Ġbuses": 6876,
      "Ġopp": 6877,
      "lephant": 6878,
      "ueen": 6879,
      "Ġbars": 6880,
      "Ġsuitcase": 6881,
      "Ġcounts": 6882,
      "Ġstolen": 6883,
      "Ġspreading": 6884,
      "ĠSnap": 6885,
      "Ġspikes": 6886,
      "Ġsteer": 6887,
      "Ġwiping": 6888,
      "Ġlamb": 6889,
      "ĠRain": 6890,
      "etty": 6891,
      "Ġhonked": 6892,
      "Whee": 6893,
      "nies": 6894,
      "Ġcowb": 6895,
      "Ġseparated": 6896,
      "blings": 6897,
      "Ġsiblings": 6898,
      "Ġhops": 6899,
      "Ġchop": 6900,
      "Ġfires": 6901,
      "Ġsewing": 6902,
      "ĠTwinkle": 6903,
      "Ġfever": 6904,
      "Ġtwinkle": 6905,
      "Ġty": 6906,
      "Ġcamping": 6907,
      "ĠMira": 6908,
      "Ġlower": 6909,
      "Ġchanging": 6910,
      "yes": 6911,
      "retch": 6912,
      "Ġbehavi": 6913,
      "ĠBloom": 6914,
      "mas": 6915,
      "Ġliqu": 6916,
      "Ġcelebration": 6917,
      "but": 6918,
      "Ġdollhouse": 6919,
      "Ġsquealed": 6920,
      "Sunny": 6921,
      "Ġbackward": 6922,
      "Ġage": 6923,
      "Ġsnatched": 6924,
      "Ġcash": 6925,
      "ho": 6926,
      "Ġtwice": 6927,
      "Ġsway": 6928,
      "lee": 6929,
      "itched": 6930,
      "Ġcelebrating": 6931,
      "ĠPeanut": 6932,
      "Ġache": 6933,
      "Ġshrinking": 6934,
      "Ġkings": 6935,
      "weed": 6936,
      "rious": 6937,
      "Ġshops": 6938,
      "Ġkittens": 6939,
      "Rose": 6940,
      "cope": 6941,
      "ĠJacob": 6942,
      "ĠGina": 6943,
      "ĠJessica": 6944,
      "aura": 6945,
      "Ġhus": 6946,
      "Ġtouches": 6947,
      "airy": 6948,
      "Ġpancakes": 6949,
      "Ġavoid": 6950,
      "Ġspat": 6951,
      "ĠFrosty": 6952,
      "rig": 6953,
      "hog": 6954,
      "ĠNina": 6955,
      "Ġpaths": 6956,
      "ĠHold": 6957,
      "cky": 6958,
      "ives": 6959,
      "Ġrotten": 6960,
      "Ġcalmed": 6961,
      "Sandy": 6962,
      "ĠJon": 6963,
      "Ġdropping": 6964,
      "Ġseaweed": 6965,
      "Pipp": 6966,
      "iles": 6967,
      "Ġtwisting": 6968,
      "Ġstroked": 6969,
      "ĠMel": 6970,
      "Ġuntied": 6971,
      "llen": 6972,
      "Ġplayhouse": 6973,
      "Millie": 6974,
      "ne": 6975,
      "Ġstudents": 6976,
      "Ġpuppies": 6977,
      "cl": 6978,
      "ĠSof": 6979,
      "hi": 6980,
      "Ġscrews": 6981,
      "Ġastron": 6982,
      "ĠRe": 6983,
      "Ġsomebody": 6984,
      "igning": 6985,
      "Ġliquid": 6986,
      "ammy": 6987,
      "Ġsquish": 6988,
      "Ġwakes": 6989,
      "ĠWoof": 6990,
      "Ġbracelets": 6991,
      "Ġastronaut": 6992,
      "immer": 6993,
      "aren": 6994,
      "Ġthrown": 6995,
      "Ġloops": 6996,
      "ĠOther": 6997,
      "Luckily": 6998,
      "Ġplain": 6999,
      "Ġwrapping": 7000,
      "Ġtramp": 7001,
      "Ġplanning": 7002,
      "Ġaimed": 7003,
      "Ġskunk": 7004,
      "Ġpennies": 7005,
      "Ġshoo": 7006,
      "Ġdancers": 7007,
      "Ġlifts": 7008,
      "Ġsparks": 7009,
      "Ġfirefly": 7010,
      "Dan": 7011,
      "pen": 7012,
      "Ġposter": 7013,
      "yan": 7014,
      "Ġcust": 7015,
      "endy": 7016,
      "ĠChristmas": 7017,
      "Ġrewarded": 7018,
      "Ġobjects": 7019,
      "Ġdirections": 7020,
      "ingo": 7021,
      "using": 7022,
      "Ġreflection": 7023,
      "Ġhusband": 7024,
      "Take": 7025,
      "âĢĶ": 7026,
      "river": 7027,
      "Ġclues": 7028,
      "uppy": 7029,
      "Ġleads": 7030,
      "Ġincreased": 7031,
      "Ġblocked": 7032,
      "Ġrising": 7033,
      "Ġdod": 7034,
      "Ġcousin": 7035,
      "ĠWithout": 7036,
      "Ġforgetting": 7037,
      "ĠYesterday": 7038,
      "rigued": 7039,
      "Ġcustom": 7040,
      "Kate": 7041,
      "ude": 7042,
      "Ġbeginning": 7043,
      "Ġtrampoline": 7044,
      "Ġstorekeeper": 7045,
      "Ġpouted": 7046,
      "Ġzebras": 7047,
      "Ġaff": 7048,
      "Ġhedgehog": 7049,
      "Ġborrowed": 7050,
      "ĠâĢĺ": 7051,
      "ĠRollie": 7052,
      "Ġsnowfl": 7053,
      "Ġcountryside": 7054,
      "Jump": 7055,
      "ĠJay": 7056,
      "Ġmesmer": 7057,
      "Ġvehicles": 7058,
      "Ġinstrum": 7059,
      "ĠMic": 7060,
      "ĠKayla": 7061,
      "ĠUp": 7062,
      "Pat": 7063,
      "Ġfrowning": 7064,
      "ivity": 7065,
      "Under": 7066,
      "Ġmarker": 7067,
      "yond": 7068,
      "Ġbeyond": 7069,
      "Ġpresses": 7070,
      "ĠQueen": 7071,
      "ĠOnly": 7072,
      "Ġdamage": 7073,
      "ivery": 7074,
      "ĠTara": 7075,
      "ĠBiggie": 7076,
      "iece": 7077,
      "Ġfart": 7078,
      "jo": 7079,
      "Ġhealth": 7080,
      "Ġnibb": 7081,
      "Ġwhispers": 7082,
      "Ġslips": 7083,
      "Ġswimsuit": 7084,
      "ĠJulia": 7085,
      "Ġflapping": 7086,
      "Ġwarmer": 7087,
      "armer": 7088,
      "Ġtiptoed": 7089,
      "Ġregretted": 7090,
      "Zip": 7091,
      "itted": 7092,
      "Ġlaying": 7093,
      "ĠRobo": 7094,
      "Ġyelp": 7095,
      "ades": 7096,
      "ĠFire": 7097,
      "Ġeverybody": 7098,
      "Ġglued": 7099,
      "Ġrains": 7100,
      "Ġcreations": 7101,
      "Ġhearing": 7102,
      "Ġswir": 7103,
      "Ġcolder": 7104,
      "iversity": 7105,
      "ael": 7106,
      "ĠElephant": 7107,
      "Ġshaped": 7108,
      "Ġfins": 7109,
      "Ġstreets": 7110,
      "Out": 7111,
      "Ġcushions": 7112,
      "Ġrusty": 7113,
      "Ġsan": 7114,
      "Ġfarthest": 7115,
      "Ġcreativity": 7116,
      "ĠMikey": 7117,
      "Ġsale": 7118,
      "ans": 7119,
      "Always": 7120,
      "Co": 7121,
      "Ġstrongest": 7122,
      "Ġfits": 7123,
      "ĠSparky": 7124,
      "ibbit": 7125,
      "Ġbells": 7126,
      "Ġdollars": 7127,
      "Ġearn": 7128,
      "iam": 7129,
      "ĠLarry": 7130,
      "ĠMoon": 7131,
      "angle": 7132,
      "ĠChirp": 7133,
      "Ġlending": 7134,
      "eese": 7135,
      "Ġcashier": 7136,
      "Milly": 7137,
      "Ġincluding": 7138,
      "ĠRich": 7139,
      "Ġsniffs": 7140,
      "Ġraincoat": 7141,
      "Ġsank": 7142,
      "Ġstopping": 7143,
      "Ġtrembled": 7144,
      "Ġsource": 7145,
      "iti": 7146,
      "imon": 7147,
      "ĠMissy": 7148,
      "Ġindeed": 7149,
      "Ġwobbly": 7150,
      "ters": 7151,
      "Ġguests": 7152,
      "Ġsingle": 7153,
      "Ġrecommended": 7154,
      "Ġwee": 7155,
      "Ġspells": 7156,
      "Ġaccomplishment": 7157,
      "Ġbelts": 7158,
      "Ġsurprising": 7159,
      "Ġends": 7160,
      "Ġhopeful": 7161,
      "Ġseasons": 7162,
      "ĠTake": 7163,
      "ĠSnowman": 7164,
      "Bear": 7165,
      "ĠEls": 7166,
      "Ġplans": 7167,
      "ichael": 7168,
      "Ġencourag": 7169,
      "Ġsupported": 7170,
      "stick": 7171,
      "illed": 7172,
      "Ġsuffered": 7173,
      "Ġartist": 7174,
      "Ġperformance": 7175,
      "Nina": 7176,
      "eet": 7177,
      "Ġslowed": 7178,
      "Ġgross": 7179,
      "Ġflavors": 7180,
      "iding": 7181,
      "Ġspins": 7182,
      "ertain": 7183,
      "cho": 7184,
      "Ġlabels": 7185,
      "Quack": 7186,
      "Ġdelivery": 7187,
      "Ġraindrops": 7188,
      "uing": 7189,
      "arac": 7190,
      "Bill": 7191,
      "Ġraccoon": 7192,
      "Ġforgiving": 7193,
      "ĠWoo": 7194,
      "obody": 7195,
      "Ġpours": 7196,
      "the": 7197,
      "ility": 7198,
      "Ġstands": 7199,
      "Ġturtles": 7200,
      "Ġvanilla": 7201,
      "uess": 7202,
      "Ġbeam": 7203,
      "Ġrecipe": 7204,
      "Ġtying": 7205,
      "ĠSw": 7206,
      "Ġgeese": 7207,
      "Ġwilling": 7208,
      "Ġdrawn": 7209,
      "Ġrobber": 7210,
      "Vroom": 7211,
      "Ġwept": 7212,
      "ĠBones": 7213,
      "Ġcharac": 7214,
      "ĠSophia": 7215,
      "Ġcorners": 7216,
      "Ġpops": 7217,
      "elia": 7218,
      "Ġqueens": 7219,
      "Ġdie": 7220,
      "Ġsailboat": 7221,
      "Ġgrip": 7222,
      "Ġdrivers": 7223,
      "itude": 7224,
      "Ġmoo": 7225,
      "Ġhallway": 7226,
      "Ġimagining": 7227,
      "Ġseconds": 7228,
      "ĠFuzzy": 7229,
      "Mine": 7230,
      "Ġpreparing": 7231,
      "Ġwidened": 7232,
      "Ġadult": 7233,
      "ĠSpirit": 7234,
      "Ġcoop": 7235,
      "Ġgrocer": 7236,
      "Ġtalented": 7237,
      "ĠBeaky": 7238,
      "ĠIzzy": 7239,
      "ĠPam": 7240,
      "Ġsailors": 7241,
      "ummies": 7242,
      "lling": 7243,
      "Ġsofter": 7244,
      "Ġaside": 7245,
      "Ġwatering": 7246,
      "Ġknots": 7247,
      "Ġsending": 7248,
      "Ġtipped": 7249,
      "Ġunsure": 7250,
      "Lulu": 7251,
      "Ġtreehouse": 7252,
      "Ġhoriz": 7253,
      "ĠLizzie": 7254,
      "Ġnotes": 7255,
      "Ġecho": 7256,
      "igers": 7257,
      "Ġachieved": 7258,
      "Ġhorizon": 7259,
      "Ġsqueak": 7260,
      "Ġdelivering": 7261,
      "Ġhotter": 7262,
      "ĠStella": 7263,
      "Ġpleasure": 7264,
      "Clara": 7265,
      "Ġpupils": 7266,
      "Ġburrow": 7267,
      "Ġangels": 7268,
      "Ellie": 7269,
      "Ġcuriously": 7270,
      "Ġyum": 7271,
      "Ġblinking": 7272,
      "ĠJune": 7273,
      "Ġdet": 7274,
      "Ġtweet": 7275,
      "ĠStretch": 7276,
      "Ġsymbols": 7277,
      "wk": 7278,
      "ĠCindy": 7279,
      "Ġpassen": 7280,
      "ĠRudy": 7281,
      "Ġtummies": 7282,
      "Ġtiss": 7283,
      "Ġpigeons": 7284,
      "Ġfigures": 7285,
      "oey": 7286,
      "umbling": 7287,
      "Ġbandages": 7288,
      "ĠRobert": 7289,
      "Ġcoup": 7290,
      "ĠDoctor": 7291,
      "Ġrobots": 7292,
      "alph": 7293,
      "Ġtossed": 7294,
      "Ġhour": 7295,
      "Ġbackwards": 7296,
      "Ġroars": 7297,
      "Baby": 7298,
      "Ġmerma": 7299,
      "uzz": 7300,
      "Ġrather": 7301,
      "Maria": 7302,
      "atur": 7303,
      "cited": 7304,
      "ĠPlay": 7305,
      "ĠCrab": 7306,
      "Moo": 7307,
      "ighting": 7308,
      "Dolly": 7309,
      "Ġgroceries": 7310,
      "Ġzipping": 7311,
      "Put": 7312,
      "Very": 7313,
      "Ġunw": 7314,
      "prin": 7315,
      "Ġamong": 7316,
      "Ġicing": 7317,
      "Ġblown": 7318,
      "Ġrumble": 7319,
      "Ġafterwards": 7320,
      "!âĢĿ.": 7321,
      "ipper": 7322,
      "Ġscrewd": 7323,
      "ĠTia": 7324,
      "ĠTiti": 7325,
      "Ġglee": 7326,
      "Ġsped": 7327,
      "Ġprove": 7328,
      "ushing": 7329,
      "Ġdip": 7330,
      "Ġovercome": 7331,
      "Quick": 7332,
      "Ruby": 7333,
      "Ġsurfboard": 7334,
      "Ġshovels": 7335,
      "ĠToot": 7336,
      "Ġslices": 7337,
      "Ġmerry": 7338,
      "Ġmate": 7339,
      "Ġwobble": 7340,
      "ĠTurt": 7341,
      "ĠAbbie": 7342,
      "Ġheading": 7343,
      "Ġdisturbing": 7344,
      "Ġswall": 7345,
      "Ġreversed": 7346,
      "Ġfirefighters": 7347,
      "Jul": 7348,
      "Ġswallowed": 7349,
      "Ġchip": 7350,
      "eds": 7351,
      "Ġscored": 7352,
      "Ġflipped": 7353,
      "Su": 7354,
      "ĠJump": 7355,
      "Frank": 7356,
      "Ġsqueezing": 7357,
      "usty": 7358,
      "Ġwaking": 7359,
      "aty": 7360,
      "Ġintrigued": 7361,
      "Sad": 7362,
      "Like": 7363,
      "Ġmaker": 7364,
      "ĠBarky": 7365,
      "Betty": 7366,
      "Ġpuff": 7367,
      "awn": 7368,
      "Ġhawk": 7369,
      "Ġencouraging": 7370,
      "Ġaud": 7371,
      "ĠEx": 7372,
      "onies": 7373,
      "Ġchos": 7374,
      "ĠRon": 7375,
      "Ġchosen": 7376,
      "hew": 7377,
      "ĠAng": 7378,
      "ĠFarmer": 7379,
      "Ġcouple": 7380,
      "Ġdesigns": 7381,
      "Ġslipping": 7382,
      "Ġscrewdriver": 7383,
      "ĠEmmy": 7384,
      "Ġsquishy": 7385,
      "Ġgardener": 7386,
      "Ġcenter": 7387,
      "Ġrivers": 7388,
      "Ġmarkers": 7389,
      "Ġrespond": 7390,
      "Ġtigers": 7391,
      "iley": 7392,
      "Ġjars": 7393,
      "pecting": 7394,
      "Ġfrowns": 7395,
      "bird": 7396,
      "Ġfluttered": 7397,
      "ĠSadly": 7398,
      "Ribbit": 7399,
      "ĠSl": 7400,
      "ĠKit": 7401,
      "ĠRyan": 7402,
      "Ġfirefighter": 7403,
      "Ġsecure": 7404,
      "Ġsuits": 7405,
      "Ġsprinkled": 7406,
      "Ġcreamy": 7407,
      "Ġbru": 7408,
      "ashes": 7409,
      "Ġsharks": 7410,
      "Ġignoring": 7411,
      "Ġgiggles": 7412,
      "Ġtighter": 7413,
      "Ġtissue": 7414,
      "Ġfirmly": 7415,
      "ĠLaura": 7416,
      "ounce": 7417,
      "fly": 7418,
      "Ġshown": 7419,
      "Ġfamiliar": 7420,
      "Ġthorns": 7421,
      "Spike": 7422,
      "ĠWo": 7423,
      "Ġdrawers": 7424,
      "child": 7425,
      "ĠZee": 7426,
      "Car": 7427,
      "Ġexpress": 7428,
      "Ġdaring": 7429,
      "Ġdef": 7430,
      "ments": 7431,
      "Ġcrossing": 7432,
      "Ġaudience": 7433,
      "Ġcloudy": 7434,
      "Ġperforming": 7435,
      "Ġcoloured": 7436,
      "Ġcor": 7437,
      "Ġais": 7438,
      "ĠNick": 7439,
      "ae": 7440,
      "rat": 7441,
      "Ġpedaled": 7442,
      "Get": 7443,
      "Ġmixture": 7444,
      "Ġtil": 7445,
      "Ġgracefully": 7446,
      "ggy": 7447,
      "Ġhaircuts": 7448,
      "Ġyielded": 7449,
      "Ġponies": 7450,
      "Ġdisob": 7451,
      "Ġcrowns": 7452,
      "Ġbits": 7453,
      "Ġtodd": 7454,
      "ĠSleep": 7455,
      "Ġhangers": 7456,
      "Ġnervously": 7457,
      "bbled": 7458,
      "ĠPatch": 7459,
      "Zoomy": 7460,
      "Ġpays": 7461,
      "Ġpeck": 7462,
      "Ġev": 7463,
      "Ġstroke": 7464,
      "Bang": 7465,
      "fall": 7466,
      "een": 7467,
      "Ġnapped": 7468,
      "Ġrespected": 7469,
      "aven": 7470,
      "Ġminded": 7471,
      "Bessie": 7472,
      "ddie": 7473,
      "ably": 7474,
      "Boys": 7475,
      "Ġtested": 7476,
      "ading": 7477,
      "parent": 7478,
      "Kim": 7479,
      "ĠNear": 7480,
      "ĠUniversity": 7481,
      "Ġbeeh": 7482,
      "ĠChris": 7483,
      "ĠTurtle": 7484,
      "Ġneighbours": 7485,
      "Ġsurfing": 7486,
      "arrow": 7487,
      "vered": 7488,
      "Ġshady": 7489,
      "Ġdarl": 7490,
      "iona": 7491,
      "Ġmagician": 7492,
      "Ġenthusiasm": 7493,
      "Ġdarlings": 7494,
      "Ġwisely": 7495,
      "Ġstitches": 7496,
      "Ġsails": 7497,
      "Dear": 7498,
      "kend": 7499,
      "Ġthoughts": 7500,
      "Ġweekend": 7501,
      "ĠTweetie": 7502,
      "Freddy": 7503,
      "Ġreminds": 7504,
      "Ġtemper": 7505,
      "oring": 7506,
      "antha": 7507,
      "Ġfleas": 7508,
      "Ġsurroundings": 7509,
      "Ġspits": 7510,
      "tha": 7511,
      "Ġteams": 7512,
      "Ġfills": 7513,
      "Ġlessons": 7514,
      "Ġflip": 7515,
      "ĠAlong": 7516,
      "Ġpaintbrush": 7517,
      "Ġmelons": 7518,
      "Ġmermaid": 7519,
      "Katie": 7520,
      "oni": 7521,
      "Ġgrandchild": 7522,
      "Ġexplo": 7523,
      "Ġelbow": 7524,
      "Ġhoops": 7525,
      "Ġsports": 7526,
      "Guess": 7527,
      "Ġlies": 7528,
      "ĠFighting": 7529,
      "rac": 7530,
      "Ġpanicked": 7531,
      "Ġamount": 7532,
      "Ġcleaner": 7533,
      "cused": 7534,
      "Ġlongest": 7535,
      "Ġscooters": 7536,
      "Ġlent": 7537,
      "Ġsill": 7538,
      "ita": 7539,
      "Ġbeloved": 7540,
      "immering": 7541,
      "Pippin": 7542,
      "Ġbeehive": 7543,
      "Alright": 7544,
      "lle": 7545,
      "ongrat": 7546,
      "oga": 7547,
      "Ġoysters": 7548,
      "Ġgrandparent": 7549,
      "ongratul": 7550,
      "Ġforgiven": 7551,
      "Ġmagazines": 7552,
      "ĠWise": 7553,
      "Ġarr": 7554,
      "Ġelf": 7555,
      "Ġrepeating": 7556,
      "Ġdiscussed": 7557,
      "Ġsweetest": 7558,
      "ĠThanks": 7559,
      "Keep": 7560,
      "Ġwadd": 7561,
      "Ġreass": 7562,
      "Ġlace": 7563,
      "ĠMaya": 7564,
      "ĠGranny": 7565,
      "Ġnightmares": 7566,
      "ĠWilly": 7567,
      "Ġtubes": 7568,
      "Ġunderstands": 7569,
      "Ġspoonful": 7570,
      "Ġnood": 7571,
      "ĠZoey": 7572,
      "Ġbathing": 7573,
      "asty": 7574,
      "Am": 7575,
      "Ġmanners": 7576,
      "Ġsweep": 7577,
      "crow": 7578,
      "Ġbully": 7579,
      "Ġnur": 7580,
      "ĠHolly": 7581,
      "Ġwrink": 7582,
      "Ġsprang": 7583,
      "Uncle": 7584,
      "Ġguide": 7585,
      "ĠYet": 7586,
      "Ġcrew": 7587,
      "onna": 7588,
      "ancy": 7589,
      "romise": 7590,
      "Jazz": 7591,
      "Ġbreathed": 7592,
      "ently": 7593,
      "ilda": 7594,
      "while": 7595,
      "steps": 7596,
      "ĠBally": 7597,
      "Ġbulbs": 7598,
      "Ġneare": 7599,
      "Ġgrassy": 7600,
      "Ġspies": 7601,
      "Ġtesting": 7602,
      "Ġwiggly": 7603,
      "Ġcoug": 7604,
      "ĠRoo": 7605,
      "Ġsolving": 7606,
      "Ġsheets": 7607,
      "Ġfootsteps": 7608,
      "ntil": 7609,
      "Afterwards": 7610,
      "Ġspeeding": 7611,
      "Ġfocused": 7612,
      "cept": 7613,
      "ounced": 7614,
      "?!\"": 7615,
      "Ġbraver": 7616,
      "Ġcamel": 7617,
      "Ġmesmerized": 7618,
      "ĠSparkle": 7619,
      "Ġhesitant": 7620,
      "Ġlicking": 7621,
      "Ġrushing": 7622,
      "ĠWell": 7623,
      "ĠPuppy": 7624,
      "Ġjoining": 7625,
      "Ġpolar": 7626,
      "Ġgreeted": 7627,
      "--": 7628,
      "espite": 7629,
      "ĠBubb": 7630,
      "ĠMartha": 7631,
      "Kiki": 7632,
      "Ġworn": 7633,
      "Ġchanges": 7634,
      "Which": 7635,
      "ĠNobody": 7636,
      "Ġmaterials": 7637,
      "undred": 7638,
      "Ġstored": 7639,
      "Ġbicycles": 7640,
      "Ġmast": 7641,
      "Ġanger": 7642,
      "Ġpeacefully": 7643,
      "Leave": 7644,
      "Ġships": 7645,
      "Ġspice": 7646,
      "Ġnuzz": 7647,
      "Ġgonna": 7648,
      "Ġterrified": 7649,
      "ĠShow": 7650,
      "Ġpolitely": 7651,
      "Ġscarecrow": 7652,
      "Ġspills": 7653,
      "Snow": 7654,
      "Ġknives": 7655,
      "ĠMixy": 7656,
      "Ġevil": 7657,
      "ppies": 7658,
      "Ġburying": 7659,
      "ca": 7660,
      "Ġaren": 7661,
      "Ġhealing": 7662,
      "Ġdonkey": 7663,
      "Ġaeroplanes": 7664,
      "Even": 7665,
      "freeze": 7666,
      "Ġmiles": 7667,
      "Ġseals": 7668,
      "Ġscattering": 7669,
      "ĠChewy": 7670,
      "Ġdump": 7671,
      "amboo": 7672,
      "Ġworrying": 7673,
      "Bee": 7674,
      "David": 7675,
      "zoom": 7676,
      "ĠLenny": 7677,
      "beep": 7678,
      "Ġpuzzled": 7679,
      "Ġstacked": 7680,
      "Penny": 7681,
      "ĠKip": 7682,
      "ĠNice": 7683,
      "Ġloses": 7684,
      "ĠWin": 7685,
      "dding": 7686,
      "Ġbaskets": 7687,
      "Ġtravelled": 7688,
      "ĠOkay": 7689,
      "Ġblast": 7690,
      "Ġgazing": 7691,
      "ĠTess": 7692,
      "ipes": 7693,
      "Hurry": 7694,
      "Ġtemperature": 7695,
      "Ġund": 7696,
      "Ġclue": 7697,
      "Ġtasting": 7698,
      "Ġdripping": 7699,
      "Ġbelieving": 7700,
      "Ġpinching": 7701,
      "erm": 7702,
      "Ġsoaking": 7703,
      "Ġrats": 7704,
      "isc": 7705,
      "Ġsandy": 7706,
      "rect": 7707,
      "ĠIsn": 7708,
      "ĠSimon": 7709,
      "rey": 7710,
      "anwhile": 7711,
      "ĠAbi": 7712,
      "Binky": 7713,
      "Ġbanged": 7714,
      "Ġpunishment": 7715,
      "Ġhumans": 7716,
      "Ġcrashing": 7717,
      "Ġforce": 7718,
      "ĠAna": 7719,
      "Ġhundred": 7720,
      "Ġgest": 7721,
      "ĠLia": 7722,
      "Ġswimmer": 7723,
      "ĠChess": 7724,
      "Ġsnowflakes": 7725,
      "Ġrelaxing": 7726,
      "ĠFairy": 7727,
      "Ġresisted": 7728,
      "Ġbeeped": 7729,
      "Ġquarreled": 7730,
      "form": 7731,
      "Ġramp": 7732,
      "elie": 7733,
      "ĠWendy": 7734,
      "Ġjoins": 7735,
      "abby": 7736,
      "Ġbackpacks": 7737,
      "ĠPh": 7738,
      "Ġdressing": 7739,
      "Ġdelayed": 7740,
      "years": 7741,
      "Two": 7742,
      "Ġtoddler": 7743,
      "ĠLuckily": 7744,
      "ĠTe": 7745,
      "Ġflight": 7746,
      "Ġcovering": 7747,
      "By": 7748,
      "Open": 7749,
      "orter": 7750,
      "Ġbenches": 7751,
      "Ġencouragement": 7752,
      "Ġtoward": 7753,
      "Ġscraped": 7754,
      "Ġfocus": 7755,
      "Ġpurpose": 7756,
      "ĠJudy": 7757,
      "Bow": 7758,
      "Ġcorrect": 7759,
      "'.\"": 7760,
      "Ġlipstick": 7761,
      "Spe": 7762,
      "Ġbamboo": 7763,
      "ĠCow": 7764,
      "Ġpotion": 7765,
      "Ġpermitted": 7766,
      "Ġtwinkled": 7767,
      "Ġmonths": 7768,
      "Ġlanguages": 7769,
      "Tony": 7770,
      "Ġorders": 7771,
      "Ġfreedom": 7772,
      "Ġmaster": 7773,
      "Ġpoppies": 7774,
      "Ġrisks": 7775,
      "shm": 7776,
      "Ġnoodles": 7777,
      "Ġfaded": 7778,
      "Kids": 7779,
      "Ġwounds": 7780,
      "rier": 7781,
      "shmallow": 7782,
      "isions": 7783,
      "ĠJojo": 7784,
      "Ġbirdhouse": 7785,
      "Ġcreams": 7786,
      "ĠHerb": 7787,
      "Ġcells": 7788,
      "Ġannoyed": 7789,
      "opes": 7790,
      "Ġcheers": 7791,
      "Ġadults": 7792,
      "Ġsniffing": 7793,
      "Birdy": 7794,
      "Ġunwra": 7795,
      "Ġpuck": 7796,
      "ecca": 7797,
      "Ġfloats": 7798,
      "Ġopinions": 7799,
      "Buzzy": 7800,
      "andas": 7801,
      "Instead": 7802,
      "Ġflown": 7803,
      "Ġscen": 7804,
      "Ġhandsome": 7805,
      "Ġsneezes": 7806,
      "ĠMint": 7807,
      "Ġnodding": 7808,
      "Ġsmelling": 7809,
      "Ġburnt": 7810,
      "Ġdrifted": 7811,
      "bage": 7812,
      "ider": 7813,
      "Ġwithin": 7814,
      "Ġheight": 7815,
      "Ġscient": 7816,
      "Ġbothering": 7817,
      "Ġdamaged": 7818,
      "Ġslither": 7819,
      "Ġtearing": 7820,
      "Ġpleaded": 7821,
      "Ġinstruments": 7822,
      "Ġease": 7823,
      "Back": 7824,
      "da": 7825,
      "ĠAli": 7826,
      "ĠMarie": 7827,
      "Ġscientist": 7828,
      "Mira": 7829,
      "Goodnight": 7830,
      "Ġpound": 7831,
      "Ġhanding": 7832,
      "Ġseller": 7833,
      "Ġgerm": 7834,
      "ĠSay": 7835,
      "Ġwasting": 7836,
      "Ġfiles": 7837,
      "Ġdreamt": 7838,
      "Ġresults": 7839,
      "ĠMabel": 7840,
      "bell": 7841,
      "Ġexplains": 7842,
      "Ġdestroying": 7843,
      "Ġbrushing": 7844,
      "Carl": 7845,
      "Ġhiss": 7846,
      "ousy": 7847,
      "ĠCr": 7848,
      "ĠRazor": 7849,
      "Ġcharacters": 7850,
      "Ġcertain": 7851,
      "ĠSte": 7852,
      "Pandy": 7853,
      "ĠHug": 7854,
      "Behind": 7855,
      "Ġsweaty": 7856,
      "unched": 7857,
      "Ġbusiness": 7858,
      "ĠRobbie": 7859,
      "Ġonward": 7860,
      "Ġtalents": 7861,
      "Try": 7862,
      "Ġbravest": 7863,
      "Ġengines": 7864,
      "ition": 7865,
      "Ġsternly": 7866,
      "ĠPen": 7867,
      "Ġpostman": 7868,
      "Ġmosquitoes": 7869,
      "prints": 7870,
      "Ġminds": 7871,
      "ĠJanie": 7872,
      "cake": 7873,
      "under": 7874,
      "Ġtuck": 7875,
      "Ġscares": 7876,
      "urious": 7877,
      "Ġstomp": 7878,
      "Ġapologised": 7879,
      "uel": 7880,
      "Ġmanag": 7881,
      "Ġbitten": 7882,
      "Ġsnuck": 7883,
      "Ġswitched": 7884,
      "Ġdecisions": 7885,
      "Ġreminding": 7886,
      "attered": 7887,
      "Ġtilted": 7888,
      "Ġsingers": 7889,
      "Ġdesper": 7890,
      "ĠPoor": 7891,
      "Ġbehavior": 7892,
      "ashing": 7893,
      "ĠJudge": 7894,
      "bbers": 7895,
      "inny": 7896,
      "Ġsqueaked": 7897,
      "Ġpeeled": 7898,
      "ĠEverybody": 7899,
      "Ġyumm": 7900,
      "Ġpurrs": 7901,
      "ĠBra": 7902,
      "Ġsmashed": 7903,
      "Ġtreated": 7904,
      "ĠUntil": 7905,
      "Ġdisplayed": 7906,
      "Ġrustling": 7907,
      "Ġneatly": 7908,
      "Ġmatey": 7909,
      "ĠBess": 7910,
      "Ġplanting": 7911,
      "Ġmarshmallow": 7912,
      "Ġinsp": 7913,
      "Ġsy": 7914,
      "Ġcracks": 7915,
      "Ġbellies": 7916,
      "Ġyelped": 7917,
      "Ġgrandparents": 7918,
      "aver": 7919,
      "Ġscamp": 7920,
      "Ġshines": 7921,
      "ĠNavy": 7922,
      "Ġhoo": 7923,
      "Ġfailed": 7924,
      "Ġcoloring": 7925,
      "ĠYoga": 7926,
      "line": 7927,
      "ĠMake": 7928,
      "Ġzooms": 7929,
      "rup": 7930,
      "Ġnasty": 7931,
      "Ġbreathing": 7932,
      "Ġcombed": 7933,
      "Ġpandas": 7934,
      "Ġdespite": 7935,
      "Ġaddress": 7936,
      "ighing": 7937,
      "Ġwaterfall": 7938,
      "omp": 7939,
      "uffin": 7940,
      "cc": 7941,
      "ĠLoop": 7942,
      "ĠAngel": 7943,
      "Tilly": 7944,
      "Ġrobbers": 7945,
      "Ġantic": 7946,
      "Ġwider": 7947,
      "Play": 7948,
      "Ġdoorway": 7949,
      "ĠTodd": 7950,
      "Ġsweaters": 7951,
      "Abigail": 7952,
      "Ġechoed": 7953,
      "evin": 7954,
      "Ġedges": 7955,
      "Ġinj": 7956,
      "ĠShadow": 7957,
      "Aunt": 7958,
      "Ġgap": 7959,
      "ĠBlinky": 7960,
      "Ġdisobey": 7961,
      "Liz": 7962,
      "wise": 7963,
      "ĠMichael": 7964,
      "Ġtar": 7965,
      "ĠFlick": 7966,
      "Wake": 7967,
      "orking": 7968,
      "oscope": 7969,
      "Ġmagnif": 7970,
      "Ġtaped": 7971,
      "father": 7972,
      "ulp": 7973,
      "Ġaction": 7974,
      "Ġscolds": 7975,
      "Ġflaps": 7976,
      "Ros": 7977,
      "ĠMindy": 7978,
      "Ġcrawls": 7979,
      "Ġgobbled": 7980,
      "Ġbacks": 7981,
      "Ġswap": 7982,
      "ĠGary": 7983,
      "ĠEddie": 7984,
      "Ġwarri": 7985,
      "ĠFishy": 7986,
      "Slow": 7987,
      "Ġsteth": 7988,
      "Ġsever": 7989,
      "Ġshinier": 7990,
      "Ġprobably": 7991,
      "Ġnewspapers": 7992,
      "Ġocc": 7993,
      "Ġseveral": 7994,
      "Lena": 7995,
      "Rock": 7996,
      "Ġencount": 7997,
      "ĠMeg": 7998,
      "Ġplucked": 7999,
      "Ġquieter": 8000,
      "Ġserving": 8001,
      "Ġconnected": 8002,
      "tock": 8003,
      "Ġouch": 8004,
      "ĠShare": 8005,
      "Ted": 8006,
      "igger": 8007,
      "Adam": 8008,
      "Fl": 8009,
      "Ġgesture": 8010,
      "Too": 8011,
      "Ġplot": 8012,
      "Ġdoorbell": 8013,
      "Ġstudent": 8014,
      "Ġcares": 8015,
      "Ġsquaw": 8016,
      "fire": 8017,
      "ĠSe": 8018,
      "Ġrescuing": 8019,
      "Ġgrandson": 8020,
      "Ġgoo": 8021,
      "Ġspy": 8022,
      "Ġrows": 8023,
      "Ġsimply": 8024,
      "iel": 8025,
      "Ġwhistles": 8026,
      "mies": 8027,
      "Magic": 8028,
      "vant": 8029,
      "Ġshorter": 8030,
      "Ġsnaps": 8031,
      "Shrink": 8032,
      "Ġastronauts": 8033,
      "ĠTime": 8034,
      "ssss": 8035,
      "Steve": 8036,
      "Ġunpacking": 8037,
      "Ġcottage": 8038,
      "Ġswo": 8039,
      "Ġaccidents": 8040,
      "Ġmood": 8041,
      "ĠNut": 8042,
      "ibi": 8043,
      "Ġswollen": 8044,
      "anie": 8045,
      "ĠMousy": 8046,
      "abelle": 8047,
      "ĠZippy": 8048,
      "Zara": 8049,
      "Ġbothered": 8050,
      "Hannah": 8051,
      "Ġstethoscope": 8052,
      "found": 8053,
      "Mat": 8054,
      "Ġcausing": 8055,
      "Ġtrusting": 8056,
      "Mad": 8057,
      "Ġdresser": 8058,
      "Ġleapt": 8059,
      "Ġsou": 8060,
      "aint": 8061,
      "Ġpills": 8062,
      "Ġproper": 8063,
      "retty": 8064,
      "Ġthroughout": 8065,
      "Olive": 8066,
      "ĠDina": 8067,
      "Ġrunner": 8068,
      "Ġprayers": 8069,
      "Thomas": 8070,
      "Ġjoyful": 8071,
      "Jamie": 8072,
      "mates": 8073,
      "Ġlocks": 8074,
      "ĠPrince": 8075,
      "Ġgoats": 8076,
      "what": 8077,
      "Ġtarget": 8078,
      "rest": 8079,
      "ĠWait": 8080,
      "ĠKaren": 8081,
      "ĠBang": 8082,
      "Ġdears": 8083,
      "Red": 8084,
      "Ġmunch": 8085,
      "Ġflips": 8086,
      "ĠCro": 8087,
      "artled": 8088,
      "Ġwaddled": 8089,
      "Ġlowered": 8090,
      "Ġstepping": 8091,
      "Ġcons": 8092,
      "ĠJackie": 8093,
      "Ġteachers": 8094,
      "ĠToys": 8095,
      "Ġcowboy": 8096,
      "Ġinches": 8097,
      "Ġenvelopes": 8098,
      "Ġchar": 8099,
      "ears": 8100,
      "ĠVroom": 8101,
      "Ġexplorer": 8102,
      "Ġanticip": 8103,
      "Ġplayd": 8104,
      "ĠRuff": 8105,
      "ĠRalph": 8106,
      "ĠReady": 8107,
      "Nice": 8108,
      "unity": 8109,
      "Finn": 8110,
      "ĠBad": 8111,
      "ening": 8112,
      "ĠPl": 8113,
      "Ġfloors": 8114,
      "Ġknocking": 8115,
      "Ġefforts": 8116,
      "Ġuniforms": 8117,
      "lied": 8118,
      "ĠTri": 8119,
      "Ġaware": 8120,
      "Ġfootprints": 8121,
      "ĠFiona": 8122,
      "Ġnearly": 8123,
      "Someone": 8124,
      "llas": 8125,
      "ĠRia": 8126,
      "Ġdisc": 8127,
      "Ġsens": 8128,
      "Ġwhimp": 8129,
      "Ġtrot": 8130,
      "Ġglitt": 8131,
      "ivi": 8132,
      "Ġappreciation": 8133,
      "oosh": 8134,
      "Ġnecks": 8135,
      "Ġchecks": 8136,
      "Ġcollap": 8137,
      "Ġlapt": 8138,
      "Ġexcept": 8139,
      "Ġplug": 8140,
      "Ġcharge": 8141,
      "ĠJacky": 8142,
      "Ġfluttering": 8143,
      "Ġumbrellas": 8144,
      "Ġstamped": 8145,
      "acy": 8146,
      "Ġsandcastles": 8147,
      "ĠHoney": 8148,
      "Ġstatues": 8149,
      "ĠDavey": 8150,
      "Hoppy": 8151,
      "omb": 8152,
      "ails": 8153,
      "Ġshrank": 8154,
      "ĠAmelia": 8155,
      "iscuit": 8156,
      "rily": 8157,
      "Ġfinishing": 8158,
      "Ġprick": 8159,
      "Ġadds": 8160,
      "rons": 8161,
      "Ġchocolates": 8162,
      "Ġhunters": 8163,
      "Ġstroll": 8164,
      "Ġdodged": 8165,
      "Ġpassengers": 8166,
      "Ġgerms": 8167,
      "oger": 8168,
      "Ġwrigg": 8169,
      "Ġaprons": 8170,
      "Ġaisle": 8171,
      "Ġsets": 8172,
      "ĠGerry": 8173,
      ".'\"": 8174,
      "Ġweeds": 8175,
      "Ġnovels": 8176,
      "ĠTaking": 8177,
      "order": 8178,
      "Ġdemanding": 8179,
      "Ġscratching": 8180,
      "Ġmeows": 8181,
      "Dr": 8182,
      "issa": 8183,
      "Ġnurses": 8184,
      "Lucky": 8185,
      "Ġminding": 8186,
      "Ġdiscussing": 8187,
      "Ġkilled": 8188,
      "urrender": 8189,
      "ĠCari": 8190,
      "Ġdriveway": 8191,
      "Ġbecomes": 8192,
      "Ġhaird": 8193,
      "Ġtoolbox": 8194,
      "ĠEliz": 8195,
      "Ġlaptop": 8196,
      "ĠDespite": 8197,
      "Ġposit": 8198,
      "Ġattack": 8199,
      "ĠSadie": 8200,
      "Speedy": 8201,
      "ĠGl": 8202,
      "sol": 8203,
      "Ġbounces": 8204,
      "Ġscampered": 8205,
      "Ġdeed": 8206,
      "Ġsprays": 8207,
      "Ġsupplied": 8208,
      "Ġtempt": 8209,
      "Ġburns": 8210,
      "Ġfriendships": 8211,
      "Ġsuggestion": 8212,
      "Ġslapping": 8213,
      "Ġclosing": 8214,
      "Coco": 8215,
      "Arrr": 8216,
      "Ġbelongings": 8217,
      "Ġinvites": 8218,
      "Ġanticipation": 8219,
      "Ġform": 8220,
      "ĠStan": 8221,
      "Ġspringing": 8222,
      "Ġerase": 8223,
      "Ġcotton": 8224,
      "Ġrays": 8225,
      "Ġtwists": 8226,
      "Ġforgives": 8227,
      "Ġsnuggle": 8228,
      "Ġmodels": 8229,
      "Ġshall": 8230,
      "Ġhumming": 8231,
      "Ġmassages": 8232,
      "onnie": 8233,
      "Ġnewfound": 8234,
      "Ġresponded": 8235,
      "Ġexpecting": 8236,
      "Ġghosts": 8237,
      "ĠShelly": 8238,
      "Ġcheated": 8239,
      "Does": 8240,
      "ĠWooly": 8241,
      "Gigi": 8242,
      "otte": 8243,
      "ĠNe": 8244,
      "Ġtraveling": 8245,
      "Ġalthough": 8246,
      "Ġcond": 8247,
      "Ġbattle": 8248,
      "Ġmommies": 8249,
      "alloween": 8250,
      "Ġaim": 8251,
      "Ġcarries": 8252,
      "Ġinvitations": 8253,
      "Ġrefreshing": 8254,
      "Ġconc": 8255,
      "Ġpresented": 8256,
      "hel": 8257,
      "Ġrowed": 8258,
      "ĠBumpy": 8259,
      "Ġtwenty": 8260,
      "ots": 8261,
      "Ġsquir": 8262,
      "rie": 8263,
      "Ġfoxes": 8264,
      "arlotte": 8265,
      "Ġcooper": 8266,
      "Ġfinal": 8267,
      "Ġduckling": 8268,
      "ĠBibi": 8269,
      "Ġcafe": 8270,
      "Pip": 8271,
      "Ġmarshmallows": 8272,
      "Ġclicked": 8273,
      "ĠZipper": 8274,
      "oor": 8275,
      "Ġbeaver": 8276,
      "Ġdesigning": 8277,
      "Ġjets": 8278,
      "five": 8279,
      "ĠHalloween": 8280,
      "ĠMuffin": 8281,
      "Ġmugs": 8282,
      "ĠWhoever": 8283,
      "Ġdrown": 8284,
      "ĠAlthough": 8285,
      "ĠRuth": 8286,
      "Ġtricycle": 8287,
      "Ġconvin": 8288,
      "Ġpicnics": 8289,
      "Ġoppos": 8290,
      "ĠExcited": 8291,
      "iens": 8292,
      "ĠCle": 8293,
      "po": 8294,
      "Ġcongratul": 8295,
      "ĠPop": 8296,
      "Ġscoops": 8297,
      "ĠMaddie": 8298,
      "Ġaliens": 8299,
      "Ġtravels": 8300,
      "ĠâĢĶ": 8301,
      "Sadly": 8302,
      "Ġtests": 8303,
      "Ġquestioned": 8304,
      "ĠSpeed": 8305,
      "inted": 8306,
      "Ġcraft": 8307,
      "Ġstrips": 8308,
      "Near": 8309,
      "Mouse": 8310,
      "atty": 8311,
      "Ġdefe": 8312,
      "covered": 8313,
      "ĠFlutter": 8314,
      "ĠBubba": 8315,
      "iri": 8316,
      "Br": 8317,
      "Ġfights": 8318,
      "Ball": 8319,
      "roken": 8320,
      "Chloe": 8321,
      "ĠBiggy": 8322,
      "Ġopposite": 8323,
      "Elly": 8324,
      "Find": 8325,
      "Hmm": 8326,
      "ĠIm": 8327,
      "Ġrout": 8328,
      "ĠNever": 8329,
      "Ġgrandfather": 8330,
      "Ġafford": 8331,
      "Ġencountered": 8332,
      "Ġdecl": 8333,
      "inch": 8334,
      "Jess": 8335,
      "Ġraising": 8336,
      "iment": 8337,
      "Ġupside": 8338,
      "ĠVivi": 8339,
      "Ġflashed": 8340,
      "ĠRita": 8341,
      "Ġcalmly": 8342,
      "Meanwhile": 8343,
      "Ġrealizes": 8344,
      "Ġyawning": 8345,
      "Ġsincere": 8346,
      "ris": 8347,
      "Ġbuddy": 8348,
      "ĠSamantha": 8349,
      "Ġcrystals": 8350,
      "Choo": 8351,
      "Trust": 8352,
      "aturday": 8353,
      "Ġcupcakes": 8354,
      "Ġbuckled": 8355,
      "Both": 8356,
      "byes": 8357,
      "Ġwinners": 8358,
      "Ġdefin": 8359,
      "verse": 8360,
      "',": 8361,
      "Josh": 8362,
      "Ġcaw": 8363,
      "Ġweapons": 8364,
      "ĠSaturday": 8365,
      "Ġcheat": 8366,
      "shadow": 8367,
      "Ġpackages": 8368,
      "Ġsacks": 8369,
      "Ġgoodbyes": 8370,
      "Ġcoach": 8371,
      "Ġattem": 8372,
      "Ġmesses": 8373,
      "quet": 8374,
      "Ġconvers": 8375,
      "ĠTruck": 8376,
      "ĠFlo": 8377,
      "val": 8378,
      "ĠMina": 8379,
      "Ġdrift": 8380,
      "Ġcaps": 8381,
      "Ġenem": 8382,
      "Ġenemies": 8383,
      "ĠEva": 8384,
      "asha": 8385,
      "Ġscrub": 8386,
      "Ġyummiest": 8387,
      "Ġswallow": 8388,
      "Ġreturning": 8389,
      "rian": 8390,
      "Ġadmiration": 8391,
      "ĠMegan": 8392,
      "ĠSofty": 8393,
      "Since": 8394,
      "Ġsprout": 8395,
      "ĠLouise": 8396,
      "Ġunable": 8397,
      "ĠPlaying": 8398,
      "ĠAnother": 8399,
      "Ġbless": 8400,
      "Ġsadder": 8401,
      "ooks": 8402,
      "Ġbrightest": 8403,
      "ugging": 8404,
      "Ġfreezing": 8405,
      "ĠYawn": 8406,
      "ĠMan": 8407,
      "Ġrespon": 8408,
      "reverse": 8409,
      "Ġcosy": 8410,
      "ĠOh": 8411,
      "Ġresponse": 8412,
      "Ġbride": 8413,
      "Ġdiamonds": 8414,
      "stalk": 8415,
      "Ġreapp": 8416,
      "Ġgarbage": 8417,
      "Ġhonking": 8418,
      "Ġopport": 8419,
      "Ġstretches": 8420,
      "Ġprevented": 8421,
      "Ġwhispering": 8422,
      "erk": 8423,
      "Ġodd": 8424,
      "Ġwhoever": 8425,
      "antastic": 8426,
      "ĠGray": 8427,
      "Ġawful": 8428,
      "alth": 8429,
      "Ġjourneys": 8430,
      "Ġweighs": 8431,
      "Ġawoke": 8432,
      "Brrr": 8433,
      "Ġdragonfly": 8434,
      "Ġtraps": 8435,
      "Ġspices": 8436,
      "off": 8437,
      "Ġborn": 8438,
      "Ġclip": 8439,
      "Ġreassured": 8440,
      "Ġstall": 8441,
      "Ġbeanstalk": 8442,
      "ivia": 8443,
      "Ġargum": 8444,
      "ĠMaisy": 8445,
      "Ġexamining": 8446,
      "Ġbeetles": 8447,
      "Ġautomobiles": 8448,
      "Ġdefinitely": 8449,
      "Hop": 8450,
      "mine": 8451,
      "ici": 8452,
      "Ġvisitors": 8453,
      "Ġstuffing": 8454,
      "Ġplaydate": 8455,
      "Ġwashes": 8456,
      "broken": 8457,
      "cie": 8458,
      "Ġwiser": 8459,
      "Ġcustomer": 8460,
      "Rachel": 8461,
      "emma": 8462,
      "ĠJolly": 8463,
      "uper": 8464,
      "ĠFlop": 8465,
      "Ġtravelling": 8466,
      "ĠSofia": 8467,
      "Ġbou": 8468,
      "ĠNurse": 8469,
      "Ġhairdress": 8470,
      "Ġbouquet": 8471,
      ",'": 8472,
      "Ġtumbled": 8473,
      "orse": 8474,
      "ĠElle": 8475,
      "bble": 8476,
      "Ġdecoration": 8477,
      "Ġcampfire": 8478,
      "Ġbud": 8479,
      "Ġhonesty": 8480,
      "vy": 8481,
      "Ġbomb": 8482,
      "Only": 8483,
      "ebecca": 8484,
      "Ġwelcoming": 8485,
      "Ġoffering": 8486,
      "ĠHello": 8487,
      "Ġwealth": 8488,
      "ĠOt": 8489,
      "Ġtroubles": 8490,
      "Ġincreasing": 8491,
      "Ġoccas": 8492,
      "ĠJax": 8493,
      "Ġloudest": 8494,
      "Ġinspired": 8495,
      "Ġparted": 8496,
      "ĠChick": 8497,
      "Ġgroan": 8498,
      "Ġtype": 8499,
      "ĠNutty": 8500,
      "irac": 8501,
      "Ġwhales": 8502,
      "ĠThunder": 8503,
      "ĠRicky": 8504,
      "yl": 8505,
      "Ġdeclared": 8506,
      "Ġcorrectly": 8507,
      "fus": 8508,
      "yler": 8509,
      "ooky": 8510,
      "Ġbeaks": 8511,
      "ĠQuacky": 8512,
      "Ġcleared": 8513,
      "athan": 8514,
      "Ġcowboys": 8515,
      "ĠDotty": 8516,
      "Ġnuzzled": 8517,
      "Ġexch": 8518,
      "Ġprizes": 8519,
      "Ġwarmly": 8520,
      "Finny": 8521,
      "ĠMissile": 8522,
      "Ġrewards": 8523,
      "Ġobeyed": 8524,
      "Ġcustomers": 8525,
      "ĠFel": 8526,
      "Ġcomforting": 8527,
      "Should": 8528,
      "Ġsirens": 8529,
      "shaped": 8530,
      "ĠFlappy": 8531,
      "Ġconnect": 8532,
      "match": 8533,
      "ĠBingo": 8534,
      "ĠMagic": 8535,
      "Ġtowns": 8536,
      "Ġrely": 8537,
      "ĠVicky": 8538,
      "elieve": 8539,
      "Honey": 8540,
      "Ġfantastic": 8541,
      "ĠFe": 8542,
      "Ġtrigger": 8543,
      "Ġowns": 8544,
      "Ġbends": 8545,
      "Ġinsisting": 8546,
      "Ġspoiling": 8547,
      "Ġhairdresser": 8548,
      "Ġpipes": 8549,
      "Ġposes": 8550,
      "Ġshares": 8551,
      "Ġcleans": 8552,
      "Ġsupporting": 8553,
      "Ġsurrendered": 8554,
      "Outside": 8555,
      "Sun": 8556,
      "ĠCook": 8557,
      "rench": 8558,
      "Julie": 8559,
      "Ġwrinkled": 8560,
      "Ġchopped": 8561,
      "Ġmoons": 8562,
      "Ġrecorder": 8563,
      "Ġbeaming": 8564,
      "Beth": 8565,
      "unes": 8566,
      "ellow": 8567,
      "Ġthanking": 8568,
      "Ġsnowy": 8569,
      "ĠWolf": 8570,
      "Ġscurry": 8571,
      "Ġenjoyable": 8572,
      "Ġactive": 8573,
      "Ġexperien": 8574,
      "Ġcoral": 8575,
      "ĠPiggy": 8576,
      "ĠKevin": 8577,
      "Ġdollar": 8578,
      "Ġenviron": 8579,
      "Je": 8580,
      "worm": 8581,
      "elope": 8582,
      "Ġloc": 8583,
      "ĠBub": 8584,
      "Ġstreamers": 8585,
      "ĠMother": 8586,
      "ĠPatty": 8587,
      "udged": 8588,
      "Suzy": 8589,
      "ĠZack": 8590,
      "inger": 8591,
      "Ġexamp": 8592,
      "Ġshorts": 8593,
      "Ġshooed": 8594,
      "Ġenvironment": 8595,
      "Tree": 8596,
      "Ġill": 8597,
      "Ġscent": 8598,
      "Ġbruises": 8599,
      "ĠLuc": 8600,
      "uster": 8601,
      "Ġgrat": 8602,
      "Bo": 8603,
      "Ġhisses": 8604,
      "Ġplugged": 8605,
      "Ġself": 8606,
      "Ġsteering": 8607,
      "ĠElsa": 8608,
      "Ġwarrior": 8609,
      "Ġvisits": 8610,
      "Ġexercises": 8611,
      "irl": 8612,
      "ĠMin": 8613,
      "ĠAr": 8614,
      "aptain": 8615,
      "Ġdangers": 8616,
      "ĠRel": 8617,
      "screen": 8618,
      "Ġcuddles": 8619,
      "Ġsigning": 8620,
      "Ġunfortunately": 8621,
      "Ġsquished": 8622,
      "ĠLight": 8623,
      "Ray": 8624,
      "bee": 8625,
      "Ġdisappoint": 8626,
      "Ġpilots": 8627,
      "munk": 8628,
      "Ġapplauding": 8629,
      "Ġgratitude": 8630,
      "ĠMoppy": 8631,
      "Ġproviding": 8632,
      "Ġting": 8633,
      "alf": 8634,
      "ĠRub": 8635,
      "Ġtickles": 8636,
      "Grow": 8637,
      "Ġbadger": 8638,
      "Ġnights": 8639,
      "Ġjud": 8640,
      "Ġstorms": 8641,
      "ĠElsie": 8642,
      "Ġconvinced": 8643,
      "Ġyoun": 8644,
      "ĠKelly": 8645,
      "Ġresponsib": 8646,
      "Ġchoosing": 8647,
      "Joy": 8648,
      "Ġbrains": 8649,
      "Ġactivity": 8650,
      "Ġnearest": 8651,
      "Ġyoungest": 8652,
      "Abby": 8653,
      "Ġexploded": 8654,
      "Ġarranged": 8655,
      "Ġcoughed": 8656,
      "Claire": 8657,
      "ĠTre": 8658,
      "ĠFly": 8659,
      "Ġrewarding": 8660,
      "good": 8661,
      "pr": 8662,
      "Ġbond": 8663,
      "Ġsunscreen": 8664,
      "Ġpeep": 8665,
      "erpiece": 8666,
      "ĠFloppy": 8667,
      "Mon": 8668,
      "ĠSweet": 8669,
      "asers": 8670,
      "ĠKaty": 8671,
      "ĠJoan": 8672,
      "ĠTweety": 8673,
      "ĠSal": 8674,
      "ilities": 8675,
      "Ġannoying": 8676,
      "sn": 8677,
      "Ġsoapy": 8678,
      "Splash": 8679,
      "meow": 8680,
      "Ġrails": 8681,
      "Ġlaces": 8682,
      "Ġtapping": 8683,
      "Ġoffic": 8684,
      "ĠPine": 8685,
      "Ġthreads": 8686,
      "Ġappreciated": 8687,
      "Ġweighing": 8688,
      "ĠPick": 8689,
      "boards": 8690,
      "Ġheartbroken": 8691,
      "Ġemerged": 8692,
      "ĠPhil": 8693,
      "Ġcongratulated": 8694,
      "Danger": 8695,
      "Ġtin": 8696,
      "ĠSil": 8697,
      "Ġclerk": 8698,
      "Ġcrocodiles": 8699,
      "Ġscram": 8700,
      "Ġattempt": 8701,
      "water": 8702,
      "Ġdial": 8703,
      "ĠAny": 8704,
      "Ġsnug": 8705,
      "ĠKay": 8706,
      "Ġmessed": 8707,
      "ĠNancy": 8708,
      "Ahoy": 8709,
      "Ġexample": 8710,
      "Momma": 8711,
      "Ġhooks": 8712,
      "ĠJonny": 8713,
      "Ġtops": 8714,
      "Ġchipmunk": 8715,
      "Ġsoot": 8716,
      "Ġbathed": 8717,
      "Ġguarding": 8718,
      "ĠTippy": 8719,
      "Ġmanager": 8720,
      "ortunately": 8721,
      "ĠMicroscope": 8722,
      "Friends": 8723,
      "ĠDe": 8724,
      "etah": 8725,
      "ĠBaa": 8726,
      "Ġmasterpiece": 8727,
      "Snowy": 8728,
      "Ġerasers": 8729,
      "Ġfet": 8730,
      "ĠTomorrow": 8731,
      "Ġfinishes": 8732,
      "Ġtips": 8733,
      "Ġcommon": 8734,
      "Ġmemb": 8735,
      "Ġdigs": 8736,
      "Ġnibbled": 8737,
      "Ġtrotted": 8738,
      "Ġmembers": 8739,
      "Ġkinder": 8740,
      "Ġcheetah": 8741,
      "People": 8742,
      "Ġblond": 8743,
      "Ġchews": 8744,
      "Ġparticularly": 8745,
      "ircle": 8746,
      "Ġbeast": 8747,
      "Ġrips": 8748,
      "Lizzy": 8749,
      "Ġargument": 8750,
      "ative": 8751,
      "Ġfaith": 8752,
      "ĠHelping": 8753,
      "Ġearned": 8754,
      "ĠCici": 8755,
      "ĠJoke": 8756,
      "Ġobserving": 8757,
      "Anne": 8758,
      "Ġforgiveness": 8759,
      "ĠJumpy": 8760,
      "Ġcheaper": 8761,
      "Ġmischie": 8762,
      "Ġfishes": 8763,
      "Ġcurl": 8764,
      "Ġinstantly": 8765,
      "Ġexperienced": 8766,
      "Ġcages": 8767,
      "Ġgenerosity": 8768,
      "ĠTwist": 8769,
      "Rosie": 8770,
      "Ġmischievous": 8771,
      "Baa": 8772,
      "Gr": 8773,
      "Ġfoam": 8774,
      "Ġmeowing": 8775,
      "Cindy": 8776,
      "mered": 8777,
      "Ġstores": 8778,
      "Ġgrandd": 8779,
      "ĠAg": 8780,
      "Ġmattered": 8781,
      "etchup": 8782,
      "Ġlimp": 8783,
      "Ġpasses": 8784,
      "Ġteles": 8785,
      "Sque": 8786,
      "Ġsleeps": 8787,
      "Ġbreaths": 8788,
      "iolet": 8789,
      "ettle": 8790,
      "Ġrin": 8791,
      "ending": 8792,
      "Ġtrans": 8793,
      "ordinary": 8794,
      "ĠFreddie": 8795,
      "Ġgasps": 8796,
      "Got": 8797,
      "Ġrumbling": 8798,
      "ĠMomma": 8799,
      "Ġhatch": 8800,
      "over": 8801,
      "abra": 8802,
      "Ġgrassho": 8803,
      "ĠHopper": 8804,
      "Ġaccomplished": 8805,
      "Ġthump": 8806,
      "Ġstrum": 8807,
      "acing": 8808,
      "Ġmats": 8809,
      "Ġsmartest": 8810,
      "Ġtelescope": 8811,
      "Ġwhined": 8812,
      "Ġmoat": 8813,
      "Gina": 8814,
      "ĠIce": 8815,
      "Ġjugg": 8816,
      "Ġfarmers": 8817,
      "Ġscrambled": 8818,
      "Ġdrip": 8819,
      "ĠMore": 8820,
      "Ġgardens": 8821,
      "Ġangrily": 8822,
      "Robbie": 8823,
      "Ġsyrup": 8824,
      "Ġcollapsed": 8825,
      "ouraged": 8826,
      "idey": 8827,
      "Ġforests": 8828,
      "Ġvegg": 8829,
      "Ġdiscoveries": 8830,
      "Ġstyles": 8831,
      "Ġexperiences": 8832,
      "Ġtor": 8833,
      "Ġmedals": 8834,
      "hole": 8835,
      "Ġfaint": 8836,
      "Ġmeaning": 8837,
      "Ġconqu": 8838,
      "ĠDoes": 8839,
      "Ġotters": 8840,
      "Ġtypes": 8841,
      "pit": 8842,
      "Ġfif": 8843,
      "adabra": 8844,
      "Ġsnapping": 8845,
      "Ġhardest": 8846,
      "acock": 8847,
      "ering": 8848,
      "Ġmovements": 8849,
      "Ġexpression": 8850,
      "Ġchilly": 8851,
      "Ġbubbly": 8852,
      "Ġsurv": 8853,
      "Ġaffect": 8854,
      "Pinky": 8855,
      "Ġcourt": 8856,
      "Ġvests": 8857,
      "Ġunfair": 8858,
      "Whenever": 8859,
      "Ġtoothbrush": 8860,
      "Ġextraordinary": 8861,
      "Ġscores": 8862,
      "Never": 8863,
      "Ġattitude": 8864,
      "Ġbluebird": 8865,
      "Ġhorri": 8866,
      "Ġvibr": 8867,
      "ĠMonkey": 8868,
      "Mo": 8869,
      "mel": 8870,
      "lls": 8871,
      "Ġketchup": 8872,
      "Ġspears": 8873,
      "ĠBerry": 8874,
      "Mother": 8875,
      "Ġsooner": 8876,
      "Ġbehaviour": 8877,
      "Ġgrasshopper": 8878,
      "ĠĊ": 8879,
      "Ġhabit": 8880,
      "Ġpatches": 8881,
      "Karen": 8882,
      "yd": 8883,
      "erts": 8884,
      "Ġmomma": 8885,
      "Ġafar": 8886,
      "Ġpokes": 8887,
      "ĠAshley": 8888,
      "lo": 8889,
      "Jacob": 8890,
      "Ġthie": 8891,
      "Ġscri": 8892,
      "ĠFriend": 8893,
      "Ġthicker": 8894,
      "Jon": 8895,
      "Ġicky": 8896,
      "ĠTerry": 8897,
      "ĠFle": 8898,
      "Ġshrunk": 8899,
      "Ġclassmates": 8900,
      "Ġsqueezes": 8901,
      "Ġslithered": 8902,
      "Ġglittering": 8903,
      "Ġprickly": 8904,
      "Ġexpert": 8905,
      "Ġtopp": 8906,
      "ĠSuper": 8907,
      "ĠRiri": 8908,
      "Ġkneeling": 8909,
      "Ġannounced": 8910,
      "elling": 8911,
      "Ġpeacock": 8912,
      "Ġmarking": 8913,
      "ĠAchoo": 8914,
      "ĠCally": 8915,
      "ctric": 8916,
      "Ġcosts": 8917,
      "Ġwatermel": 8918,
      "Ġzigzags": 8919,
      "Ġthieves": 8920,
      "Ġhood": 8921,
      "ĠApp": 8922,
      "Ġjumper": 8923,
      "Ġskirts": 8924,
      "ĠZog": 8925,
      "Ġacts": 8926,
      "Papa": 8927,
      "Ġwolves": 8928,
      "ĠCloud": 8929,
      "ĠSwim": 8930,
      "Ġcocoon": 8931,
      "Ġconcer": 8932,
      "Ġsqueaky": 8933,
      "Ġthumbs": 8934,
      "Ġboards": 8935,
      "Ġwoodcut": 8936,
      "ĠBecky": 8937,
      "ĠEliza": 8938,
      "Ġservant": 8939,
      "idence": 8940,
      "Ġcheating": 8941,
      "affle": 8942,
      "bu": 8943,
      "Ġraking": 8944,
      "ĠJason": 8945,
      "Ġtrading": 8946,
      "Jessie": 8947,
      "cat": 8948,
      "ĠEric": 8949,
      "Ġexplaining": 8950,
      "Ġbiscuit": 8951,
      "rick": 8952,
      "Ġtidied": 8953,
      "ĠAc": 8954,
      "Ġlunchtime": 8955,
      "Ġluckily": 8956,
      "anced": 8957,
      "ĠPuffy": 8958,
      "Frog": 8959,
      "Ġspilling": 8960,
      "ĠDay": 8961,
      "Fire": 8962,
      "ĠUse": 8963,
      "Ġdesserts": 8964,
      "ĠDaniel": 8965,
      "ĠAnimal": 8966,
      "ĠMaddy": 8967,
      "Ġtransform": 8968,
      "ror": 8969,
      "ĠMine": 8970,
      "âĢ¦": 8971,
      "ĠPig": 8972,
      "ĠGill": 8973,
      "ĠStill": 8974,
      "rough": 8975,
      "Ġmirac": 8976,
      "amma": 8977,
      "ĠCaptain": 8978,
      "Ġmessages": 8979,
      "ĠTammy": 8980,
      "idy": 8981,
      "Ġbeating": 8982,
      "ĠLung": 8983,
      "Ġchill": 8984,
      "ĠGilly": 8985,
      "Ġwindowsill": 8986,
      "oot": 8987,
      "Ġseeking": 8988,
      "Ġactor": 8989,
      "ĠLina": 8990,
      "ĠRainbow": 8991,
      "ĠWilliam": 8992,
      "sse": 8993,
      "its": 8994,
      "ĠMath": 8995,
      "Any": 8996,
      "Ġforeshadow": 8997,
      "pril": 8998,
      "war": 8999,
      "ĠHi": 9000,
      "ĠPinch": 9001,
      "acles": 9002,
      "ĠStep": 9003,
      "Ġleans": 9004,
      "Bluey": 9005,
      "Bounce": 9006,
      "Freeze": 9007,
      "ĠTiger": 9008,
      "Ġhissing": 9009,
      "Ġflashing": 9010,
      "Ġdev": 9011,
      "Ġcloths": 9012,
      "ĠMonster": 9013,
      "racadabra": 9014,
      "Ġwatermelon": 9015,
      "Ġfunn": 9016,
      "ĠWil": 9017,
      "Ġwinding": 9018,
      "Ġdiscouraged": 9019,
      "Ġpositive": 9020,
      "pop": 9021,
      "Ġforts": 9022,
      "Ġdripped": 9023,
      "Ġcompete": 9024,
      "ĠFrankie": 9025,
      "Ġwoodcutter": 9026,
      "Ġteapot": 9027,
      "Ġpressing": 9028,
      "Ġdisagreeing": 9029,
      "icking": 9030,
      "Ġglimmering": 9031,
      "Ġtidying": 9032,
      "Ġtrusts": 9033,
      "Ġkangaroos": 9034,
      "Ġveggies": 9035,
      "ĠPeep": 9036,
      "Ġlanding": 9037,
      "Ġtempted": 9038,
      "ĠFlora": 9039,
      "Ġdock": 9040,
      "Ġformed": 9041,
      "Ġshallow": 9042,
      "Ġoverw": 9043,
      "lers": 9044,
      "Ġfade": 9045,
      "Ġrack": 9046,
      "ĠTooth": 9047,
      "flowers": 9048,
      "Ġworst": 9049,
      "Ġelectric": 9050,
      "Ġcops": 9051,
      "eling": 9052,
      "Ġapology": 9053,
      "Nothing": 9054,
      "ai": 9055,
      "iving": 9056,
      "ĠLife": 9057,
      "creams": 9058,
      "Ġsleds": 9059,
      "ĠSilver": 9060,
      "Ġass": 9061,
      "upid": 9062,
      "Ġcomets": 9063,
      "Bug": 9064,
      "Ġsav": 9065,
      "ĠMag": 9066,
      "ĠJelly": 9067,
      "ĠShark": 9068,
      "Owl": 9069,
      "Ġpapa": 9070,
      "Ġsituations": 9071,
      "Ġconversation": 9072,
      "Ġofficers": 9073,
      "Rain": 9074,
      "ĠRoger": 9075,
      "ĠCharlotte": 9076,
      "Ġding": 9077,
      "aye": 9078,
      "storm": 9079,
      "Ġsuns": 9080,
      "ĠButter": 9081,
      "âĢĿ,": 9082,
      "Ġpizzas": 9083,
      "Ġzips": 9084,
      "Ġmiller": 9085,
      "Ġstructures": 9086,
      "Ġscurrying": 9087,
      "Ġoverwhel": 9088,
      "Ġfoggy": 9089,
      "ĠHurry": 9090,
      "ĠAmber": 9091,
      "ĠOlivia": 9092,
      "Ġgranddaughter": 9093,
      "Zoe": 9094,
      "ĠJaney": 9095,
      "Ġwebs": 9096,
      "Ġdeserved": 9097,
      "Rabbit": 9098,
      "ĠSasha": 9099,
      "ĠBuster": 9100,
      "ĠSpidey": 9101,
      "ĠYummy": 9102,
      "Ġcubs": 9103,
      "ĠMixie": 9104,
      "Ġopportunity": 9105,
      "Ġsnorted": 9106,
      "ĠGold": 9107,
      "Ġrhino": 9108,
      "Ġdifferences": 9109,
      "ĠTell": 9110,
      "Ġquacking": 9111,
      "Fifi": 9112,
      "Ġheaven": 9113,
      "ended": 9114,
      "ifully": 9115,
      "ĠBirds": 9116,
      "Ġlevers": 9117,
      "Ġunlo": 9118,
      "Ġinchworm": 9119,
      "ĠTyler": 9120,
      "Ġinter": 9121,
      "Ġapproach": 9122,
      "ĠBoom": 9123,
      "Ġposse": 9124,
      "ĠRufus": 9125,
      "Ġseagulls": 9126,
      "Ġcooperate": 9127,
      "ĠFelix": 9128,
      "Ġpossess": 9129,
      "of": 9130,
      "sers": 9131,
      "Ġpose": 9132,
      "?âĢĿ.": 9133,
      "welcome": 9134,
      "ragon": 9135,
      "andra": 9136,
      "ĠSmoke": 9137,
      "Ġdisappointment": 9138,
      "ocular": 9139,
      "Ġspeaks": 9140,
      "Ġsneaks": 9141,
      "Ġbinocular": 9142,
      "Ġartwork": 9143,
      "snap": 9144,
      "Ġscowl": 9145,
      "Ġanswering": 9146,
      "ĠSnake": 9147,
      "Ġsurfed": 9148,
      "ĠGrand": 9149,
      "Ġshortcut": 9150,
      "Ġsipped": 9151,
      "Ġdep": 9152,
      "Ġrobin": 9153,
      "ĠInky": 9154,
      "Ġarrest": 9155,
      "Climb": 9156,
      "Ġreun": 9157,
      "ssy": 9158,
      "Ġamused": 9159,
      "Ġribbit": 9160,
      "ĠAmanda": 9161,
      "Ġunwrapped": 9162,
      "ugar": 9163,
      "Ġpepperoni": 9164,
      "Ġrepeats": 9165,
      "Ġapplause": 9166,
      "ĠMae": 9167,
      "ĠCars": 9168,
      "Ġkeyhole": 9169,
      "Ġcheckout": 9170,
      "Deal": 9171,
      "Lia": 9172,
      "Ġvisitor": 9173,
      "Ġstriking": 9174,
      "Ġpaddling": 9175,
      "Ġpuppets": 9176,
      "Eat": 9177,
[...]
